/**
  ******************************************************************************
  * @file    python_model_data_params.c
  * @author  AST Embedded Analytics Research Platform
  * @date    Mon Jun  5 21:28:47 2023
  * @brief   AI Tool Automatic Code Generator for Embedded NN computing
  ******************************************************************************
  * Copyright (c) 2023 STMicroelectronics.
  * All rights reserved.
  *
  * This software is licensed under terms that can be found in the LICENSE file
  * in the root directory of this software component.
  * If no LICENSE file comes with this software, it is provided AS-IS.
  ******************************************************************************
  */

#include "python_model_data_params.h"


/**  Activations Section  ****************************************************/
ai_handle g_python_model_activations_table[1 + 2] = {
  AI_HANDLE_PTR(AI_MAGIC_MARKER),
  AI_HANDLE_PTR(NULL),
  AI_HANDLE_PTR(AI_MAGIC_MARKER),
};




/**  Weights Section  ********************************************************/
AI_ALIGNED(32)
const ai_u64 s_python_model_weights_array_u64[12804] = {
  0x3df553b13d3d356cU, 0xbd19b57b3d87820bU, 0x3daed006bcee999aU, 0xbcca4872bca1bbd3U,
  0xbd1393e63cd309d6U, 0x3ded842c3ccd8b2aU, 0x3d94092cbc871fb5U, 0x3d3a3a3a3c5e4032U,
  0x3c8a9a233dca5995U, 0xbcbcc920bd87d2ddU, 0xba2337e6bcb3c52fU, 0x3bec14833d8d517aU,
  0xbcadd7a03d4be07bU, 0x3afbb218bcaf0f32U, 0x3dbb93763b8bd77fU, 0x3a9abd13bd542c4aU,
  0xbd1185203d4b1510U, 0x3cc885db3cbc58efU, 0x3d45cebe3ca059d6U, 0xbccb5abebcc77b10U,
  0x3c6bf8973e054908U, 0xbdd3d08a3d3c7dd4U, 0xbb4d915e3c903406U, 0x3ca0861abd06caa3U,
  0x3ccb2f383e08fbc9U, 0x3d12a67e3d87f5a1U, 0x3d77dda83c1a42faU, 0x3dee0924bb4f262fU,
  0xbd2183b73da86beeU, 0xbb0677943de01be5U, 0x3d1555e63d0c4cbcU, 0xbc995ed33d7cfd11U,
  0x3e07cc4f3cb89eceU, 0xbda18422b9611ce4U, 0x3c7b70f03d441570U, 0xbd2973cbbcda6d75U,
  0x3ccaaecabd2980f0U, 0x3d1398fc3df03ddbU, 0xbcc995433c52ae3aU, 0x3dbfd0eebc3d2ebbU,
  0x3d92f0afbd79b4feU, 0x3c855571bac52a19U, 0x3e22b847bcd8248bU, 0xbdadaa3d3e0997b5U,
  0xbda8b3f33baa736aU, 0x3c2726553da57c4dU, 0x3dad27fd3d0866f5U, 0x3d8e2250bc669fb8U,
  0x3a88855a3b60e2cbU, 0x3c9afc77bddabae2U, 0x3d83a1783de2a445U, 0x3b7ae9973c613801U,
  0x3da54d2a3d09d09dU, 0x3d1c43453e09d308U, 0xbd817e113d151c1aU, 0xbcca8b05be0149aeU,
  0x3baf7a4d3c479660U, 0xbd9c6256bcccff19U, 0xbd248cc6bdf388c3U, 0x3df6e8a03cfc58adU,
  0x3e0513e73ca28807U, 0x3d208fa73dbd567aU, 0x3de4f4bf3ca4c6f9U, 0xbb97664c3d8b24f4U,
  0xbd571350bcc2a871U, 0x3c229e0bbd836f73U, 0xbe15ca823d3a98fdU, 0xbf44bf08bf2a2919U,
  0x3f04cd9fbecf572fU, 0x3eb97fc33ec1f96eU, 0xbd2fd304beb34974U, 0xbdf64896bd1f8832U,
  0xbc879542be4cd320U, 0xbcbf8aacbbbcc12bU, 0xbbd0daae3b050de2U, 0x3d41041bbc583749U,
  0x3d7631833d0487b3U, 0x3da348edbcf56dc6U, 0x3da31ab83d7a3ed1U, 0xbd4da88cbbc18cb1U,
  0x3d7f656339973976U, 0xbc498d73bd39d6cbU, 0x3d3884483c2f1536U, 0x3c51d6803cd274bbU,
  0x3b57b62d3d863013U, 0x3cf9adb83df896eaU, 0x3d8bf02b3c5268c3U, 0x3d8757c93cbff330U,
  0xbcf8a1cd3d1c4ec2U, 0x3c811c46ba5984a6U, 0x3db7f5ce3dc277deU, 0x3ca64a5bbc53dfa9U,
  0x3d796ae6bbeb04b4U, 0xbccd2dc9bd0ffacdU, 0x3d0840f13c3ef6caU, 0x3d9c1a6fbbbba8eeU,
  0xbde24697bd40bfa0U, 0x3de060453bde6ce0U, 0x3cffbb643d62afa0U, 0x3d8c836d3d46109cU,
  0xbc4d505d3deb67f5U, 0x3d8ee1dd3d968284U, 0x3dd923353ce02a8bU, 0x3b0f6b933de4250bU,
  0x3db482e23c3429bfU, 0xbcd97525bc12288dU, 0xbdc1bad73e4bf93eU, 0x3cd82d8fbd592ccaU,
  0x3dbf815e3dccca9dU, 0x3d1629e43b2d4f33U, 0x3de70ad93a3734b7U, 0xbd4202aa3d273973U,
  0xbc111be2bd1f3e1eU, 0x3bc11c253d0bf2afU, 0x3cd41e59bd1727d9U, 0x3ca13c263d4e55b7U,
  0x3de6f74b3dd44c00U, 0xbd85a6af3d23559bU, 0x3d911b66bdefbbd1U, 0xbc1e40d23d80c6bfU,
  0x3d9414d6bd7fb636U, 0xbd437bd93dda94b1U, 0x3caa13d3bcef2c52U, 0x3d061dfb3d9715c0U,
  0x3c9751fc3d4d36eaU, 0x3b41f0f03dcf73fdU, 0x3b813d63bd486443U, 0xbde5815bbddee04eU,
  0x3c97e5973dc6244aU, 0xbd26b6d83dd44489U, 0xbd8d9de8bd05bffeU, 0x3be1d90c3db758a3U,
  0x3e0de7b13c8a8a7eU, 0x3d38d5f93dbf821cU, 0x3d465bdc3dc74f6bU, 0x3e3ed658bd6a7e4bU,
  0x3d7cdd163e3683c1U, 0x3d4c7e94bdc4b6f1U, 0xbd078e7b3db831c4U, 0x3d7eee41bd75516fU,
  0x3e6f3584bf585858U, 0x3eb4ec63becb8113U, 0x3e9e0bbd3f001271U, 0x3bf261433eb0a94fU,
  0xbe987431be886956U, 0xbe1adc69be24dc94U, 0xbe454039be916cb0U, 0x3d57a147bd09e4cbU,
  0xbd08cfe93ca5d1a7U, 0xbd7ae1e3bcbc976dU, 0x3d8ae5a83cc1d3dcU, 0x3d6d57793d9b68d0U,
  0x3d777625bd067266U, 0x3cf1cd0e3d40d65cU, 0xbcc4d0a6bd0ff0dbU, 0x3d7d495b3d2553abU,
  0x3d131879bd5783fbU, 0x3c54e28dbcf6439dU, 0xbd4d29b13c65578dU, 0x3d79ab893d560e19U,
  0xbc1f78ac3d5ec12bU, 0xbc45e91c3dbc6b92U, 0xbd8b39d53caebdd3U, 0x3d006fe6bc1b2574U,
  0xbbe02bfd3d4a705fU, 0x3af472273c59a84fU, 0x3d25ec803d1b2576U, 0x3d0d29ab3d1db40aU,
  0x3d59968bbc58ee16U, 0x3bd9b0b53d98556cU, 0x3d0a14583c5b5db5U, 0xba9b58723da5aa56U,
  0xbd17288fbc291abcU, 0xbc2fa38abd1905b2U, 0xbd9d4a6dbd2abbffU, 0x3dad73953cc7af3eU,
  0xbc2b6dc2bd84338fU, 0x3d4d0a833cc40464U, 0x3b8fa46b3dc693f6U, 0x3c56faddbceb6390U,
  0xbda43972bd8e104cU, 0xbd5a2df53d264484U, 0xbcdf6a733dc2f900U, 0x3db628ab3d1cbfbfU,
  0x3d4b1c7c3d89e202U, 0xbb83d293bdc52040U, 0xbc5d016e3da982a3U, 0x3afd77873d030b28U,
  0x3d76e3613d356201U, 0x3e03140d3d87f81aU, 0x3d4518f63d2d5f25U, 0xbd82b9bf3b711f22U,
  0x3da8b9e33d30177dU, 0x3d90c62f3d51c1d5U, 0x3b0dcacc3e0107a0U, 0xbcc51f7fbd841b2cU,
  0xbce954473d136f4cU, 0xbd8c7ffc3d0e41ffU, 0x3d1e25643d1cceabU, 0xbdbdb093bd405c37U,
  0x3d3757203db3c461U, 0x3d26e70fbccccf40U, 0xbac3b1943cdaf94cU, 0xbc437f8dbc163d81U,
  0x3d9f5f8d3d50b62eU, 0xbd65badc3c5e4eeaU, 0x3dbfd9973dfb999dU, 0x3c523c943dbe8c3fU,
  0xbd761b64bcdf8df0U, 0x3e341e563e69723aU, 0xbd88309ebdbe9c23U, 0x3d1a3904bd02b8c6U,
  0xbd85fa8b3c548e41U, 0x3ec5956ebd975d3aU, 0xbee50856bf2637b4U, 0x3ebd3479bf20e822U,
  0x3efe6f8bbe8fd52dU, 0xbe46fe2ebe9691bbU, 0xbeadbf9fbef93fe6U, 0xbef2b11cbeb86c05U,
  0x3da7b469be9affd8U, 0x3c85d02b3d30da51U, 0xbc073e863c2541bcU, 0x3d8ab194bd719526U,
  0x3b473e1e3d757ea9U, 0x3d75959e3dcc9a23U, 0x3cab2c40bd23304bU, 0xbdaf1a2d3cf18514U,
  0x3d6749863cb7774bU, 0x3d847b04bd9309c6U, 0x3d832a26bdc86660U, 0xbd344427bc16d158U,
  0x3d7dd308bd87322aU, 0x3c1def543d07b4f5U, 0xbb2958d53d1c967dU, 0x3dbed23dbc4c36d2U,
  0xbdf1a58dbca47371U, 0x3d538c5d3d7382e0U, 0x3da38790bdc6f21aU, 0xbda6737d3d07cac6U,
  0xbeb086b7bc669f84U, 0xbbbf8c843e0b0085U, 0xbdefebbdbdf63540U, 0x3c9049d63d475e71U,
  0x3ce02a08bc7c2c9dU, 0xbd358831bd628429U, 0xbd7b5e6dbd036e67U, 0xbc6381afbdf8a989U,
  0xbdc410e2bd9abc2fU, 0xbcd2230abca04b8fU, 0xbdebcfcebe5aa947U, 0x3eac1b93be321cf9U,
  0x3d0198843d5c58c9U, 0xbc82d3733d986262U, 0x3ca92e913d9b4e02U, 0xbd724c753a23c8e9U,
  0xbbfb14343cc546a2U, 0xbc78db67bda75b9bU, 0xbe0078b2bd975f21U, 0x3d86def1b96c034eU,
  0x3d28b39ebd6b857eU, 0xbe647ece3d9029c9U, 0x3c45ea0a3d68670bU, 0xbd7c80373d03e9a1U,
  0xbda2fa14bbc36f15U, 0x3cd60009bd729a80U, 0xbe1c5a523cefc435U, 0xbd9df651bd91365aU,
  0xbd2b5062bdee7711U, 0x3ac9f616bd27c34fU, 0xbb9c4364bc9e04f6U, 0x3d4f0327bc312a6dU,
  0xbf2939b93c2afe01U, 0xbd7148a8bceaacd0U, 0x3dec2a8ebbd9411eU, 0xbd703a95bdf68144U,
  0x3bf4fccabcf827e2U, 0xbd8683dcbdac2364U, 0xbdfc1d51bdbc03afU, 0xbced3badbd6ac0ceU,
  0x3d95f7d6bdc417d5U, 0x3b3d4e51bd5817d2U, 0xbd5c9157bd19b01aU, 0x3d62878a3c9adacbU,
  0x3ce8ee303cba2715U, 0x3dac84ecbb80ea69U, 0xbd0abd00bbba76beU, 0xbf09310bbe91926bU,
  0xbeea1f06bf170a94U, 0xbf282e57bf00599aU, 0xbdd196483f60f7f0U, 0x3e130c11bc6cc9d5U,
  0xbd5058c13d485280U, 0xbd6ca5dd3df0f85dU, 0xbd0639c93d8be2d9U, 0x3d726bc9bc9c9948U,
  0x3e02e2933d3e1c86U, 0x3d6f64a73d5e7129U, 0xbce249f43d813e3dU, 0x3cc146dcbcc21e29U,
  0xbcba1645bd48a302U, 0xbcd0c097bc08d356U, 0x3d2db8f63c42f4a9U, 0x3dfa4b053d695cf3U,
  0xbcae5b1cbba1fa51U, 0xbb7bbc243d1f7a1bU, 0x3da00029bc976d06U, 0x3d6aa6623ca7b6d2U,
  0x3b44f6b23d6c6399U, 0xbd3f31b6bcec1427U, 0x3d900d223d328a0eU, 0x3d7f18dd3d9618adU,
  0x3d908c243d674db7U, 0x3d36b7603c812efbU, 0xbce287fcbc98c577U, 0xbc9fdff2bc9709f7U,
  0x3af18ad6bdef83c9U, 0xbd4420c6bcff50e6U, 0x3d9229c2ba90a7e5U, 0x3ce892e23dba5573U,
  0x3dc5bc493d82663fU, 0x3b909ed93daaa826U, 0x3d358db23c03eac6U, 0xbdb6d9c8bd8e3ca2U,
  0x3ddbf70a3d88ec1bU, 0xbc90163cbbaa9a98U, 0x3d8204d23de35733U, 0xbd23fc7b3d9ba80fU,
  0x3c85f0a13a4eb425U, 0xb8cc92913d6271daU, 0x3caf54d63d400622U, 0xbb8a22f7bd24dbe6U,
  0x3cbd79203d102004U, 0x3d49f636bce59b20U, 0xbc83dfcb3ca49e40U, 0x3d76fd293d6afafbU,
  0xbcc2fa5cbd56fcb3U, 0x3c0f4ec93d48601fU, 0xbc3db1b33d6ff9d7U, 0x3df0c518bd329a00U,
  0x3d9c95a6bcf1d37fU, 0x3d1e1be43e2082abU, 0x3d10fbfdbd4f5552U, 0x3d6d99743dba8c2eU,
  0x3b5dae2b3d8bbcbeU, 0x3db9300abd664b38U, 0x3db27d413ca2235aU, 0x3cdf54fb3cc42023U,
  0x3b9960b23d5ae288U, 0xbd88d4dcbd2c5c18U, 0x3e7bb9be3e5fede4U, 0xbafdb5f43d1f4800U,
  0x3d464cfebd6c5205U, 0x3d96cbeb3e0a8520U, 0x3b792572ba8f987fU, 0xbd72e7d6be0d2290U,
  0x3e9a4ccc3e82f0fdU, 0xbcf2d12e3ddd9683U, 0x3d707a7f3d2125f4U, 0x3df2f16fba970b65U,
  0xbf4ddd83bdc7bee5U, 0x3f2374f7bf0f31d5U, 0x3eb659c5bf0df29bU, 0x3ed0be45bf0a7ce4U,
  0xbf0094c7bef07081U, 0xbe6218f9beaefa10U, 0xbecca743be87dad8U, 0xbd5029f0be9c1d9bU,
  0x3c2137e43d9ef3adU, 0x3d1d4907bdaf0410U, 0x3d3ffc73bc91321aU, 0x3c8e36873b76d747U,
  0xbd25d0c9bd8260a3U, 0x3d60c0393a455cd6U, 0xbca1822d3cc0f369U, 0x3d0008573c587959U,
  0xbbbaff303d53b628U, 0x3cf61d3fbc822cb5U, 0x3c7f08213dabf854U, 0x3d96d56f3c884f98U,
  0x3d06ee70bc72f06cU, 0xbcdd41a5bc4bbe95U, 0x3c6f9eb6bc9da1a2U, 0x3c82b71f3ca54f29U,
  0x3d9b1b37bc3d97bcU, 0xbc99b0793d829fb8U, 0xbc5ab5d53b8772b8U, 0x3d4a92053d472a09U,
  0x38a804ad3d393db2U, 0x3b1f28303d3501dcU, 0xbd85cecc3d826a91U, 0x3d8f47e63d9ba0c7U,
  0xbd2b4d1fbc472154U, 0x3c272fd1bd30be64U, 0x3d6dc3f6bcc5e1d9U, 0x3d80bdea3cd82d9cU,
  0x3d1b950bbcd67f67U, 0x3d1751563d62e259U, 0xbce3add1bd587725U, 0x3c59c136bd0eefffU,
  0x3c88159a3d5ed372U, 0x3cf13530bb3bce93U, 0x3be6829ebd21cc72U, 0x3da407383d193844U,
  0x3dd406783d8d7c40U, 0x3df66a093d46eb24U, 0x3d8771823cfdf748U, 0x3e05005b3db9ed73U,
  0x3c690ae73daa33d6U, 0x3d05fb483d1731e1U, 0x3d1ad0253dba468eU, 0x3d79fb553cee28e9U,
  0xbcddc3493d35f5acU, 0xbd6e2f53bda2c847U, 0x3e13e9b53cd38a11U, 0x3b4d141e3da0b3edU,
  0x3d2664113c399855U, 0x3da8e5bb3c2f1941U, 0xbd0ef3653d6b7b0cU, 0xbd138f62bd2f37eeU,
  0x3d8c76643c14420fU, 0xbde7baef3c6db980U, 0x3d3213453de0690dU, 0x3d8820c1bc646f69U,
  0x3cc8edd63c6bcce3U, 0xbbf38ecb3ded23d3U, 0x3d929a76bc72374dU, 0xbd37af283df7d789U,
  0xbbb6dea93e0ad703U, 0xbdd8f9d23dd27742U, 0x3daa40b6bdbed699U, 0xbd538a9b3d39d4d6U,
  0xbd8e8b3e3c99fd8dU, 0x3d9a698abc405c20U, 0x3f058936bc0fc1c7U, 0xbe8c88563deffca6U,
  0x3e83e1d03edecb7eU, 0xbea03931bf1ecf1bU, 0xbe9db052be7c02f6U, 0xbe3c4285bef92f92U,
  0xbe8a2aabbe3477d0U, 0x3d669830bd428a96U, 0x3a40fa06bd8d48d7U, 0x3d6024a7bd4ad55dU,
  0xbcf6cb443c92ee84U, 0xbd38ce223db98014U, 0x3d81d2efbca2c09bU, 0xbbfcad0dbd8c4e47U,
  0x3cd4d741bd255f26U, 0x3cb308d5bc9108baU, 0xbd37f27c3d6d2898U, 0x3d138ec23cfaf427U,
  0xbd23d66b3c2b3a18U, 0xbd3fb9b73d5aa0d5U, 0xbcb2b50cbcb278acU, 0x3cff0ea53c8a2fcfU,
  0xbd2ad908bd1dbd6fU, 0x3d22a98c3db9a6f5U, 0x3cf018913cdcc936U, 0x3dea7daebc659a38U,
  0xbcd5ef96bb81a8adU, 0x3d2360ab3d8617f1U, 0xbc82a0b2bd2ed173U, 0xbd801ae43d6b62b3U,
  0xbd03defabd034a57U, 0xbc1d64823de1d104U, 0xbbf0f1283b27903fU, 0xbca772223cd8f8bbU,
  0xbbd751b93d049fe7U, 0x3cc19aad3aa1947eU, 0x3d3966713de1efe3U, 0x3c8e3f413dfb24b8U,
  0x3d17cae1bb8ba1dfU, 0x3de59ee1bcaf9e73U, 0xbd5724f5bc24b72bU, 0x3d2c8b24bb848968U,
  0x3b4770493bfb002eU, 0xbd03a18b3ba80715U, 0xbd58f3eabbbdef74U, 0xbd8a579f3d5c5c6fU,
  0x39afa14a3c6099d9U, 0x3cfe272a3deb2a54U, 0x3ddc8f9e3c8fee0aU, 0x3ca77a8c3bdd21e6U,
  0xbe01a26f3cb095feU, 0xbdcff3f23d4e3bf4U, 0x3af08ed03c113511U, 0x3d8b4563bd95b629U,
  0xbc72c8533c391816U, 0xbc8020ddbd6d7e10U, 0xbbd3d0f2bcd76174U, 0xbd940bb13decc247U,
  0x3d3d8d15bceaafc5U, 0x3d9dd9ba3cad1c81U, 0x3e10553d3e45690fU, 0x3d851b18be05a88dU,
  0xbd3b8441bd85d177U, 0xbd6e8370bd9910cfU, 0x3d0a4dc83c352f3bU, 0x3da4f8ecbc39a73dU,
  0x3d8375da3c6b25ffU, 0xbd3348bdbda23e71U, 0x3dc2d1503d7ddfd9U, 0xbd1ea622bd43b699U,
  0xbd7ff330b9a098a8U, 0x3dabdadb3da395a4U, 0x3d443e723d96d71cU, 0x3d0c13f63da511a8U,
  0xbeaafc2f3ef43bb5U, 0x3dfe19a6bed34f9bU, 0xbecfe5663e8fc80fU, 0xbe1f661dbe93709bU,
  0xbebf52a4be9637c7U, 0xbe1a9b1cbe97180bU, 0xbd0426d1beec454cU, 0x3c7d5c603c527f61U,
  0xbca969b03c351343U, 0xbca790d53c43888bU, 0x3cd786d83d8c156cU, 0x3bfbe48c3c86870eU,
  0xbd7ee7673db066e9U, 0x3c6f44413cc43bf0U, 0x3c1383843d077741U, 0x3ce3c1123d71f8ddU,
  0xbbfdbe9abc5c9f29U, 0x3d809b703cec2ef3U, 0x3d07dabb3dcdb7d6U, 0x3d467193bb444828U,
  0xbce8ace6ba5a2db4U, 0xbd3e11333c8686e6U, 0xbd0ddc67bd8483e8U, 0x3d2ee888bb83767dU,
  0xbc3ffbbebc30195aU, 0xbca4d348bd9321a9U, 0x3d8d57a43d749ba2U, 0x3c8d598dbceb9dadU,
  0x3da32fe03d98b7b8U, 0x3d1fcdf5bc848eecU, 0x3cddb98a3dbee94eU, 0x3cfe94b8bd4ad460U,
  0xbd31364dbd9f9c04U, 0xbbd86559bd6866edU, 0xbd5b356b3d1f6e60U, 0xbdb9d93ebd5d5076U,
  0xbd82f9e6bd8282faU, 0xbdabb4953b96ce5bU, 0xbc263789bd048887U, 0xbb6ff97b3dadcdf9U,
  0x3de1826bbd215500U, 0x3cfdd2a4bd1e6446U, 0x3d8b0a4ebabcd5ddU, 0x3cbd10b33a53f15fU,
  0x3d66bea93d90d5e2U, 0x3d6477613d0388e0U, 0x3d4594183d46f887U, 0xbce55fa4bd926afeU,
  0x3d076cab3d425932U, 0x3de3989e3dad6ae6U, 0x3d95f63dbd4aaf6aU, 0xbcc05ae13d2f3d35U,
  0x3c9da45bbd2e1920U, 0x3da7864a3c8a78d7U, 0xbd89e41b3d56948dU, 0x3c54289c3d9f08e0U,
  0x3cad5dc1bd397d65U, 0xbd9f76d23c131798U, 0x3ddc48943d18da56U, 0x3d0fd8873c20d9ebU,
  0xbde8f4273c985698U, 0xbca71f0f3c802e51U, 0x3e060feabc8b989fU, 0xbc81d2fc3dd31979U,
  0x3dad786c3df9a052U, 0x3e24f6a53d469d5fU, 0x3bf9fe9f3e01ff0dU, 0x3d2584e23d7663ecU,
  0x3e2cdf8d3cb22daeU, 0xbce56e7f3e08d8fcU, 0xbd0e2548be0526d8U, 0x3d7e404fbc4e71b8U,
  0x3d731f20bd7705dfU, 0x3e6b4767bf221f26U, 0xbeb8f8593ed7f065U, 0xbe25cb17be852877U,
  0xbe951e08be154743U, 0xbeee997abe810117U, 0xbf11d79cbf37fccaU, 0xbf19bccbbe9b0055U,
  0xbd2177d73d119d3eU, 0x3d8f8d28bd1c1872U, 0x3c3a73cfbb9ba032U, 0xbd123e0a3c5b3704U,
  0xbd2c81d9bdac0e8fU, 0x3d465ae7bd43b4fdU, 0x3d1663623cde4e80U, 0xbd067034bd58f9dcU,
  0xbcb131efbc704ee3U, 0xbbb1f4593d7160f5U, 0x3d6828b53ccbcdd5U, 0x3d21db78bd91ebc5U,
  0xbd5bec6c3d092af5U, 0x3cccb04dbd72e089U, 0x3d260c9fbcb7a89eU, 0xbd94e7f83d9613d2U,
  0x3db7a7b6bdd4de22U, 0xbc212a1b3c0d01f4U, 0xbd5b1cb53cb3f192U, 0x3dcb102c3c0f2c4aU,
  0xbd095683bcb15b88U, 0x3d76e9d4bd01bf00U, 0x3d9017d8bd8ebdd1U, 0xbd3aa2383c85af07U,
  0xbbb08803ba96fb4aU, 0xbc0e9e1dbd00d6d5U, 0xbd4f0f72bd4313a1U, 0xbbbe5d8a3d3dfcd8U,
  0x3d760b04bdae0b82U, 0x3b11cc5dbba208ddU, 0x3d7ebaf33c6b0741U, 0x3d517777bd7743faU,
  0xbdc8a002bcf06936U, 0xbdd2003e3c9a2be4U, 0xba7a32d5be193555U, 0xbd6754b93db3091eU,
  0x3c334217bd7cbbe8U, 0xbc9ff6e3bce0dac9U, 0x3b1bcf053cc529fbU, 0xbdffb0d5bd5f02eaU,
  0xbd0ef1b2bc570009U, 0xbdb4df91bcd404e7U, 0x3c8fdb7b3cbe826cU, 0x3d9fcfce3c65c714U,
  0xbe1ade6bbd7d6e85U, 0x3d7fd9393d02301fU, 0xbd6e55333d711fc7U, 0xbd892a9ebd0234b0U,
  0xbd4252253d9283eaU, 0xbb0aac8bbc2d3365U, 0xbd900395bc4394deU, 0xbd31049e3cf1ca31U,
  0x3bf71bcabdcdf46dU, 0x3bf649bc3bd001c8U, 0xbe341b403d8acebdU, 0x3cbd146bbd93d0baU,
  0x3dfa6e823dcc36cfU, 0x3c1e4c143d693b21U, 0x3cf8c842bb2b7a58U, 0x3d2854323cd9baecU,
  0xbdd149983d57bc05U, 0x3da66b2abcf0f9c0U, 0xbd790937bd6197b8U, 0x3dff73943dbccb88U,
  0xbd4467b63c18e7faU, 0x3d77633a3d5ad5a8U, 0x3e2533cb3cb6a044U, 0x3f0c76f2bf042de6U,
  0xbcca2af5be15acd6U, 0xbe97a250be39e228U, 0x3dab616f3d1b4bdeU, 0x3d7f61663e19ecafU,
  0x3dd2e33a3db46df5U, 0x3d6ce3fe3e3e4f59U, 0xbcd800e73c939d4dU, 0x3d8112e9bd809625U,
  0xbd9c81db3d1a734bU, 0xbd0fce7fbd4692c6U, 0xbd3396153ccc0634U, 0x3ce68696bba31f49U,
  0x3b65ea9abc37ac7dU, 0x3ce5f0203d91b91cU, 0x3cf0144d3da11113U, 0x3a7f0396bc4ab37cU,
  0x3cc523173d080565U, 0x3d547e2bbb4d1053U, 0x3cff0e513d8242d0U, 0x3c52f1a1bda93ee1U,
  0x3d855de23d88f0caU, 0x3b0927f73d6e386cU, 0x3cebd0413cd700dfU, 0x3d87bc6a3c96ac5bU,
  0xbc71aae0bc7dfc71U, 0xbd6d0c71bd5d2264U, 0xbd466eac3daf7f52U, 0xbca5f819bd024cbbU,
  0x3c53d66cbcc56963U, 0xbdaaded83be98aefU, 0x3cbe748bbcc43961U, 0xbd77b820bdc16b93U,
  0x3ce854443d71b460U, 0x3d7639703d481cf1U, 0x3b8d988e3c5fce79U, 0xbb1e5a52bda32b26U,
  0x3e2c6bcd3c749b01U, 0x3d0ee095bd737370U, 0x3da5877a3dad9f08U, 0x3d50e495bb9d0d4aU,
  0xbd3e3f69bce800cdU, 0x3d5f20263d1c35fdU, 0x3d99eb5e3d81c73aU, 0x3daba56c3d860d81U,
  0xbd0423e83e368ac4U, 0x3d545c06bbbf83fbU, 0x3da0cd1cbd8f4098U, 0x3d51940ebdc14ae3U,
  0x3ba448ae3d9abe7fU, 0xbd00da11bc0b3325U, 0x3aad296f3d91fd94U, 0x3e2ec7da3e18d3f6U,
  0x3d79dae3bc3812e7U, 0x3cc220393d167da5U, 0x3da8ba8c3ccdc96bU, 0xbcb381e03d41c37fU,
  0xbd4d93723dbc0395U, 0xbe5eca10bd92b954U, 0xbdbb7c443cf90d8dU, 0x3de45b1fbdbc25aeU,
  0xbc8c6f5dbe328961U, 0x3ddacd453ab2e75dU, 0xbd307a2d3c6e4fe0U, 0x3db79f203d5028a0U,
  0x3c7bc5963cac93ecU, 0x3d802c263ded1045U, 0xbd99182abdaa6e4eU, 0x3d00c5f23bbb762dU,
  0xbd0f23efbd375ff6U, 0xbc9b201c3d144ab3U, 0x3d129e9abd52e22fU, 0xbd7bbd51bd2fa361U,
  0xbf16d701bec02480U, 0x3e5d75f7bd016e34U, 0xbeefb42bbd9048d4U, 0x3e123f923f1ba932U,
  0x3e4279dd3e2ef70fU, 0x3e07d64d3e6c23b3U, 0x3f0015a53e64c2a5U, 0x3dbac4fe3bdd3eabU,
  0xbd0f79a43bd2c716U, 0x3dccac193d70357cU, 0x3d4332b13c439928U, 0x3aab7deb3db6308fU,
  0x3db8ab083a9e60e5U, 0x3c828707bb451f52U, 0x3c9f85d73bd561ddU, 0x3de4655c3c56205eU,
  0x3d8d06693b930979U, 0xbd08d8a63d89e9deU, 0xba271ac73ca109d9U, 0x3d23283ebcaaf470U,
  0xbd497b603d4cac16U, 0x3d5ec8ac3dbf9cc4U, 0x3ca369a6bd095bbdU, 0x3cb8c8183d012feaU,
  0x3daeb8e2bcb271dfU, 0x3dab80a73d923730U, 0xbd69ff663dd59537U, 0xbcc97f3f3d14f2cfU,
  0x3d3fb72b3cff148eU, 0xbcd3dd1c3d0fe22dU, 0xbd15dd94bcb92b63U, 0x3e0609793dbc2f98U,
  0x3dcec73ebd452510U, 0x3d0a316f3dc41ceeU, 0x390cd4fd3dc480f6U, 0x3d181ca03e5ddb9eU,
  0x3ba3af7e3cdb123fU, 0x3da716173dc5e50bU, 0xbd5560d13d101d92U, 0x3d4476e73d4e4da4U,
  0xbdaccdd83d43ccc3U, 0x3d987e43bd350a8fU, 0x3c88ba3e3d79d068U, 0xbc9c9bd5bbe1937dU,
  0xbb6e7e1ebb8039e9U, 0x3d704cc0bcbfc3daU, 0xbd17bd993da3891cU, 0xbd4b6d423b24ed1dU,
  0xbd13756c3d032864U, 0xbcdd1a9fbd29fd9cU, 0xbd4db592bd53a933U, 0xbd3aa454bbad8851U,
  0x3d7624aa3dd5bd47U, 0x3d874fd9bcaea905U, 0x3db8b67f3d78a831U, 0x3dad9baa3cbe82caU,
  0x3da53ab83e2d1575U, 0x3d8091593d997501U, 0xbca39bcf3c7e0f2dU, 0x3d193e733d3d52d2U,
  0xbd775aa73d8cc3aaU, 0x3c7fea4e3dd2007bU, 0x3d7b80b0bc735491U, 0x3d69807d3e25aa8eU,
  0x3d066fcdbd271f33U, 0x3daea204bcc01be9U, 0xbd80573abd771d0eU, 0xbc7d08863cd9655dU,
  0xbd8b0dcdbce059f0U, 0x3e50cc0e3e44ca8aU, 0x3d8e2d90bdf07d9fU, 0xbd4b8817bd2b9efeU,
  0x3d14f0a43e001bc4U, 0x3ee5bb5bbcea5b7aU, 0x3f485251bf1da34fU, 0xbf2e28fd3e5f1dc1U,
  0x3ef68e31bf148409U, 0xbed1d639bdf6fc79U, 0xbed29249be93c4c7U, 0xbeecadd6be3470daU,
  0x3df87ed9bcc4cb12U, 0x3bc29ea6bd266a6dU, 0x3cc0cc4ebc8390deU, 0x3d3700923d43bf2dU,
  0xbd4efc4a3c43aad2U, 0x3d8e683e3cce21adU, 0x3d350075bdbfe890U, 0xbcaebf503bbdf3dbU,
  0xbd5763333d9fdd00U, 0x3e186c883d5f78e4U, 0x3d2be095bcb0e1d1U, 0xbd39d31c3d2a8a86U,
  0x3d553c62bd9cef81U, 0xbc0dbfe73d012182U, 0xbd9218283d7628fbU, 0x3cf32104bd393a46U,
  0xbda0e0d03c14f084U, 0xbc7125133d935d16U, 0x3daf9dad3ccfcac0U, 0x3d00ed70bd3ead11U,
  0xbd84ceeb3dbdff61U, 0x3ccb3755bd207dc0U, 0xbd69c1b5bda554ebU, 0xbcb8a9f03ddfc105U,
  0xbd264f1dbcaa11f3U, 0xbdd0e76abdb119a4U, 0xbc340412bd61561bU, 0x3db02a2abdb1ea63U,
  0x3c7e030e3c82a5acU, 0xbde0290d3baeb78dU, 0x3c1423bcbb5f4fb9U, 0xbdfeaa08bdc52663U,
  0xbd11f4d73d1d2ca7U, 0x3d830c5cbdc1e907U, 0xbe2e9ac8bc9d0294U, 0xbca713c5bc3153a7U,
  0xbcce02b3bd50ecd8U, 0x3d24c0323d204ddfU, 0xbd57e4943d3dc8efU, 0x3a214894bd6d76f1U,
  0x3b2c51313c7f43f8U, 0xbc8fb374bc209c52U, 0x3d8f826ebcdc2bd1U, 0xbe27eba5bde13415U,
  0xbe00091c3c680822U, 0x3d97fa86be0d1060U, 0xbd804bfbbc912caeU, 0xbd7ccf1d3ca3fe7eU,
  0x3d31e5473cd581daU, 0xbdfa2fd03bc8dec1U, 0xbc946d36bbc41369U, 0x3cecfdfc3d3da7cfU,
  0xbd1cf63fbd56d6f1U, 0xbd9656803dc5336fU, 0x3d914b6fbdf829d2U, 0xbda60ebebdfd42daU,
  0xbd8a3f3ebd12f87dU, 0x3d83d511bdec7327U, 0xbd811479bce9f87dU, 0xbdb2df013cded209U,
  0xbd9486c8bdcd7854U, 0x3d89680bbe0cd03aU, 0xbe1a361b3cd0dc1eU, 0x3d9779a9be0cc5abU,
  0xbd4893f43cfa9d6aU, 0x3d8cf9cd3d840dc5U, 0x3db1b3f83d667d7fU, 0x3e3beaa0bea52fdcU,
  0x3e668b7ebdec4478U, 0xbd1ff5d73daa6c05U, 0x3d86b166be812c1bU, 0x3e6d0710bd472e47U,
  0x3dbd73a43e2e7e7cU, 0x3e1462c73df31d9aU, 0xbd3876abbc3ee489U, 0xbd06928d3d8b372cU,
  0x3d6308d73d8d9f20U, 0x3c8299f63d2dbfb3U, 0x3dcdaa76bd89bc18U, 0x3d010bb43cd3773bU,
  0xbca68cc53d8cef44U, 0x3dbdc081bd3c667aU, 0xbceef2ef3b978635U, 0xbd5c2b223d074323U,
  0x3d6f31713c68a667U, 0xbcd203eb3d007f01U, 0x3d05c2b83d494fc1U, 0x3d7eaab2bd2a0af9U,
  0xbd49c913bd4f116dU, 0xbdb41bb63c549f79U, 0x3d9815f43c6eaf01U, 0x3d983e34bd238beaU,
  0x3cb776493c3b3a01U, 0x3c0524ebbd08aca4U, 0x3c5979583d96c9c4U, 0xbdb8f19dbc04a0b3U,
  0x3d8d2123bdaf7b56U, 0xbde7372dbde4b121U, 0x3d4e10d73dbd13d4U, 0x3bfe41debdfe7023U,
  0xbd51a533bd8d3a0aU, 0xbdff6ba83d49bb53U, 0x3dd372c9bdae7222U, 0x3b55071bbce11feeU,
  0xbd11603e3ca08a41U, 0x3d1fa92cbdcf4dfbU, 0xbdb912cfbcffe08cU, 0xbdc448ac3d8e83f8U,
  0xbd19d579be0d9658U, 0xbd8c35b3bd31929fU, 0xbc2135e23db661feU, 0x3cc658b8bc9a81caU,
  0xbc48f46abda42958U, 0xbccffdc73d603eefU, 0x3dbe17c4bd454d11U, 0x3cec18efbce07dc6U,
  0xbd32cba2bc997c22U, 0x3d4071fdbdaf33efU, 0xbd82c48ebdc8ac38U, 0x3d1a57f03d600841U,
  0x3d8be2453cec5037U, 0x3c4bc6713b66cb55U, 0x3c8d44ca3c45911bU, 0x3c9c392abcab234eU,
  0xbda74669bd508c78U, 0xb9b4abea3def3692U, 0xbc7d6752bd80e4cbU, 0xbd09dc71bdf01e97U,
  0xbd78c69e3d79b1caU, 0x3d325cfdbe0086f6U, 0xbd7d8d35bda6a9f7U, 0x3d3b8515bb9cac73U,
  0x3d716db03e08d3b1U, 0xbd7aed19bc53963bU, 0xbbb5847d3d8333d5U, 0x3dd71495bd3a4899U,
  0xbd5d5808bd5255f5U, 0x3ded9c1b3daf809dU, 0x3be44dd13bf45a77U, 0x3d395f3a3d5fb8d9U,
  0xbea5df813bc01061U, 0xbee6eaa1beff1620U, 0xbe7f14b23ec1fdb3U, 0xbdb3dfcd3d59dba3U,
  0x3db9cf553c52cc43U, 0x3cde77d63db9d24eU, 0xbcce530a3db124d1U, 0xbab504e43e48f87dU,
  0xbcd11fcc3db4f78bU, 0xbcea5505bd83ae67U, 0xbc76f8dfbd08712fU, 0x3c84434b3d8eb55dU,
  0x3d412bed3a48b707U, 0xbd18842d3dcd642aU, 0xbc311b303c4fcc54U, 0x3caef1d03c10db2aU,
  0xbcaf13ea3cb9ca5fU, 0xbcb24b583ce6517fU, 0x3db8719c3cf04a0bU, 0x3c5c2e173d6dcd0dU,
  0xbcbd2902bb4b80c0U, 0x3d1ce7613cc7710dU, 0x3d002d8a3d80ee2dU, 0x3d91af173d082c55U,
  0x3c301276bcd54ae6U, 0x3cd51c9d3d9fa334U, 0x3c9003dd3c553ab0U, 0x3d4eec183ca1874cU,
  0x3d02616c3d09c8a8U, 0x3cccb3463dcbae8eU, 0xbc78403b3c21de51U, 0x3d87b7da3d38f44eU,
  0x388733193c144046U, 0x3d6c7aab3cc98319U, 0x3d8b2a583d4ce1bdU, 0x3dc808fc3bc968e9U,
  0x3bc5a2213cfcb8f2U, 0xbd3e3be63ddeb46dU, 0xbcb20d5b3dd28a2aU, 0x3dc9532c3d6c8558U,
  0xbd65e36b3de1ea8fU, 0xbcb67d4cbd063f2bU, 0x3db315943d798933U, 0xbd24aca73d9c3bcaU,
  0x3dc73b763cc17238U, 0xbd46f68d3b9e2b35U, 0x3c120bcc3d15e15fU, 0x3da4d23bbc8df4aaU,
  0x3d651f063cced446U, 0xbcd8ad0b3c1ee0f3U, 0x3d3ee7bc3e149828U, 0x3d7fa8eebcecd706U,
  0x3cf96085bdb30c5dU, 0x3bcb1f713d42a38dU, 0x3ce343653a509f5dU, 0xbc643b6b3ce4149aU,
  0x3d2fe36c3d872eeeU, 0x3d849b313d5e83acU, 0x3c39e3713d988453U, 0x3d8efa2a3ddc582cU,
  0x3e086f083d0215d1U, 0xbdb7d9b0bd324d74U, 0xbd4434013d7f18e5U, 0x3d7040593d270661U,
  0xbcb62b2ebd20226cU, 0x3e52a6f43e576d6cU, 0x3dee91e5bd88f004U, 0xbcb9e61d3e46876aU,
  0xbbad62d73d95d5ebU, 0x3e4858283b51b27aU, 0x3c97e5a33d404f42U, 0xbd25999abd4934e0U,
  0x3d7169f73ca47bd3U, 0xbc958c1e3d8b5b6eU, 0x3f031750bd97e8c0U, 0x3e28707cbec10cc1U,
  0xbf06e23a3efe8ac1U, 0xbf07081dbe67813fU, 0xbf15ecaebebbd3c2U, 0xbe808df7bef1a350U,
  0xbecfde60be69ef77U, 0xbc9d11a7bd2103a9U, 0xbd5dd780bd6622d1U, 0xbd89cdb8bccd1b5aU,
  0xbc2851e238e65f9aU, 0xbc8d5d8a3c420928U, 0xbd7311b6bc8a7e82U, 0xbc6632aebc12d602U,
  0xbd661b263c77c0b2U, 0x3ccf5d053ce30bcfU, 0x3c4bbb123d489bd2U, 0x3c1166333c9b2fbbU,
  0x3d22c7eb3d843670U, 0xbc906be3bd613439U, 0x3d086dafbda30b62U, 0x3b232a46bbd2b500U,
  0x3d06d4c1ba9390f6U, 0x3ba90dd03ccba512U, 0x3c6a33323c2a7583U, 0x3cea2a9b3d8fcc6cU,
  0x3cfde0563c80e998U, 0x3cbfc0d03b94e215U, 0x3d0c72ae3ba56ac4U, 0x3cc2ed963d886e86U,
  0xbd8ef885ba316c25U, 0xbc8abdcf3dad02a6U, 0xbd5c1be7bd08fd68U, 0xbd4833c1bd9aa227U,
  0x3ca155943cb0005fU, 0xbd3f79723b9ea738U, 0xbd371471bd35e895U, 0x3cd9e0643da42217U,
  0xbd5a1e443b991895U, 0xbddeb316bb84022fU, 0xbc2b19d13d63ec80U, 0x3cf19e10bdb24d0aU,
  0x3cb440e5bd220d92U, 0xbbad13ec3d316ff0U, 0x3d983fdabc156ccdU, 0xbbb4d3c23cd70c3aU,
  0xbe0abc1f3d867819U, 0x3ae104883d92aa31U, 0xbd743550bd501036U, 0xbd9a41553c7888f3U,
  0x3e013594bdb472c3U, 0xbe61c1a0be0ae3e9U, 0xbd048e80bcaed280U, 0x3c200b7abc03a60aU,
  0xbd9eadeb3be986aaU, 0xbcb312f5bb0a8ea2U, 0x3d3a30563d31683cU, 0xbd8e3f39bde03141U,
  0xbdb6a88ebc5bab73U, 0xbc4d34a7be241f54U, 0x3ceaacb93d51d612U, 0xbe2ac1d13d664b6dU,
  0x3d3852bebe2a5774U, 0xbc9a73b6bb3ef1eeU, 0xbdd98b793b1ea813U, 0xbd3686a73a2ea891U,
  0xbd7eded7bd66f619U, 0xbdd39c8d3d67b1fcU, 0xbcd755023d2c8a50U, 0xbe0fc784bdf406beU,
  0x3c653ec3bc94d72aU, 0x3d68573bbd66caeaU, 0x3d700890bcf05ed0U, 0x3f51e6883b4d856eU,
  0xbf10982abf17a990U, 0x3e8038ef3e92bec2U, 0x3dd586a9bef221a3U, 0x3e80b8e43ef46f58U,
  0x3e8dd9343e0b6786U, 0x3e51c0873e0248deU, 0x3dbd22a63e520398U, 0xbcacf3b33dac7c1aU,
  0x3d814df43c83c339U, 0xbc074a973d11a5ebU, 0x3c6f1a303dd81171U, 0xbd5207bc3cb39639U,
  0xbd1293093e02c1c3U, 0x3d398450bc0da961U, 0x3c325cd23b9f804aU, 0xbdc467363daf97bdU,
  0xbd334ecb3d50c103U, 0x3d7636493dd52a7aU, 0x3d19f09f3d80e377U, 0xbc0b6fcbbbe977b0U,
  0x3ca2c9c03c99eafeU, 0x3d94cb6dbd8850b7U, 0x3d66204e3be2583aU, 0x3ce317163e0fdd2fU,
  0x3db5b1cabd1222daU, 0x3bb50c333cbadd34U, 0x3d8c6e9e3dcba8eaU, 0xbccdb1f23d67b751U,
  0xbd378b543d0b0577U, 0x3b200ef6b88d4467U, 0x3dd4d1abbd044959U, 0x3d1377423d230c0bU,
  0xbcd125cb3d9012afU, 0x3dca89c0bdeb3524U, 0x3c20c3ba3d9128ccU, 0x3d054cfe3caf3c52U,
  0x3d5d14193c715ba8U, 0x3da17ceabbfcc83fU, 0xbd134adebd1a301bU, 0x3da96052bcde7674U,
  0x3d2d8cb23d1b0b1cU, 0x3cce3b95bc99ab79U, 0x3d5e66f33c324d5dU, 0xbc45dd76bda0125bU,
  0x3c6a374e3dade3bcU, 0xbd370d653da53a4eU, 0xbcbe49173c289c8bU, 0xbb5d5a82bbf2b1ddU,
  0xbd00dcb13db725fdU, 0x3d3a1e65bb289289U, 0x3d0da670bc28274bU, 0x3dbd8a5a3d0882a3U,
  0x3d9891c93e045e3fU, 0xbd9d731f3dbbb474U, 0x3d797f97be00ff6aU, 0xbd31ff5d3ca464f4U,
  0x3dae060f3ce3f892U, 0xbc0e54b6bc4ceae5U, 0xbd9e7fe43ca450c8U, 0x3d5c852bbd8b9bf2U,
  0x3c4125a93df76983U, 0x3de2ad163db1bc52U, 0x3d0c44ac3de2c97aU, 0x3da9f4393df81a36U,
  0xbd9e8dfdbdf5ef95U, 0xbe3723b1bc406248U, 0x3d0b134fbd6e9bc0U, 0xbdc1c5e83d1c03aeU,
  0x3bccd46a3d70a6d3U, 0xbd9afe17bda3065fU, 0x3d8118febbf96c08U, 0x3d5b07683d8fe145U,
  0x3d5d64213ca4c7d5U, 0x3d8279fd3ef4db6cU, 0xbe23fdde3f0383e6U, 0xbe37cd05bed8f86bU,
  0x3ceefa3d3e96a0f4U, 0x3da22bf23e2c717dU, 0x3e26a2973e803c3bU, 0x3dc7ed543e62a607U,
  0x3d87572f3dbd83edU, 0xbbbdcd063d1b01bdU, 0x3cce18e93d5ffbd9U, 0x3c5c4e513db503d4U,
  0x3d13ef493d3c3de9U, 0x3ccf76f63d097d5aU, 0x3c32f2b83dbf3767U, 0x3c0c0c153d0008c1U,
  0x3d6750d1bcbedb6fU, 0x3c6df54d3bcb68c7U, 0x3d734907bd573e90U, 0xbd97f81d3c893c64U,
  0xbcf1a5803dcbbd06U, 0x3d93b602bd9487abU, 0x3cbb3638bc1b5696U, 0xbdb804a3bd11652cU,
  0x3d48028fbdc4d474U, 0x3c9d801f3cd91ac2U, 0x3d8dd29a3b64a08aU, 0x3da210583d3a973aU,
  0x3db40b7c3d1dfdb0U, 0xbb45d19dbd47aeb3U, 0xbd115bf4bbd00e22U, 0xbc49db8cbc1886f8U,
  0xbdacdcc6ba8e7a3aU, 0x3db06dd3bd8e61c8U, 0x3d83977ebd1d6fcdU, 0xbdd003aabb9ad6c7U,
  0x3d8c52a53cf3420eU, 0xbc901a2bbc40f5c9U, 0xbd96db4fbc095097U, 0x3d9160fabd10a18bU,
  0x3da8e35e3d000c47U, 0x3cb73f14bd1c2ad1U, 0x3da286aebd5495c4U, 0xbcec34de3c3d0df2U,
  0x3c7d6fcb3cd650e1U, 0x3cfa5cdd3dd93c01U, 0xbd9a85f4bdab11bbU, 0x3ccf3711bc1c7f12U,
  0x3d9642733e02d844U, 0x3d3e57783cb7fbdbU, 0xbd805c463d975082U, 0xbd17c4823ce1b10dU,
  0xbdbea37d3d240d07U, 0x3bc381873d1ece75U, 0x3d2260743cee3de4U, 0x3cadc8ed3d0abc2bU,
  0xbdd4bb663d3c8383U, 0x3d81147cbb43c7e8U, 0xbd7b1652bc77814aU, 0x3d09661e3da88e10U,
  0x3d009eecbc027b71U, 0xbd98b999bd828d1cU, 0xbca524c43ccb57c7U, 0x3d48ecb33d51c9bdU,
  0x3cbbef56bd9c043aU, 0x3c194eafbd54de56U, 0x3d45cd6d3d76ad3aU, 0xbc23e198bda4f431U,
  0x3ca701363cdc16e6U, 0x3cd46d713dc84e12U, 0x3db8553dbc0da71dU, 0xbd940ec73e1d9b2eU,
  0xbd8172c9bce0ef9cU, 0x3aeb181e3d95ad44U, 0xbf3990c83cd78c51U, 0xbedbcacd3f094c12U,
  0xbe22b55a3ef4b4a5U, 0x3ed5e2433e76a622U, 0xbdbc7db13df09b96U, 0xbc5ea58ebd6ec466U,
  0xbe8b2899be6dd719U, 0xbb8ab69cbdca31e0U, 0x3d10e18f3dd77861U, 0x3c2066a8bd1881b8U,
  0xbdbbfe4dbbc58becU, 0x3d1566583c5fd7e8U, 0x3d469a103d09608fU, 0x3cfa89773e00e8c5U,
  0x3cc8a8263cf4b63dU, 0xbc7390c93d00d337U, 0x3ba9fef03dd68f6dU, 0x3db50d4a3c5b39acU,
  0x3d0847003aa7d6ffU, 0x3d1339903b292a6bU, 0x3b918c9c3caca50eU, 0x3d244f2b3d05fb05U,
  0x3d5aa7303da91946U, 0x3d49e1613d9ab3c2U, 0x3d61146b3d1ab66eU, 0xbcca8b4d3d8bdc16U,
  0x3d4303793c79572cU, 0x3df30e78bc330767U, 0xbd8842c43dbed464U, 0xbcb6cb0d3cdf960cU,
  0x3d2780b3bce1f9e5U, 0x3cebe940bc86c2efU, 0x3d68ecd13d72a50cU, 0xbdc5dfe3bd44eb37U,
  0x3d9af5463bcf4336U, 0x3cca94233cde4049U, 0xbca07f09bceff345U, 0x3d4f6628bd8dc56cU,
  0x3c22d0143d91dd04U, 0xbcd89a2b3d5ce4f4U, 0xbd9c30143d00df96U, 0xbd9af3773d22cae0U,
  0x3c53816fbd338af1U, 0xbd48baed3d11d5b8U, 0x3d59745b3c52a501U, 0x3d86d3703d4eabacU,
  0xbd2a09b7bc0b247fU, 0xbd96d724bcde2ff3U, 0x3dc9b14fbc8263d8U, 0xbda72f733d4a99e3U,
  0xbccacb093ce1e93cU, 0x3db72616bd6434b7U, 0xbd42b505bd9aafa5U, 0x3c0af093bbe41520U,
  0x3d95d4eabd09822bU, 0x3d3e44603ddf3ad8U, 0xbdab13c23c56b034U, 0xbca9ff143dad93f8U,
  0x3ce4943d3c7b5872U, 0x3d753aa63bca8ee5U, 0xbc064c45bdb89c19U, 0xbc7d453c3d4fc3a4U,
  0xbd18dbd8bd07a9f9U, 0x3da36fd73cae67baU, 0x3d94b8243d4a169dU, 0x3db9ab6a3bbb09b9U,
  0x3c9e27ee3c8583b2U, 0x3da56c993e05738eU, 0xbdb6bbdebd7070b4U, 0x3e3eb2d1bc44a175U,
  0xbcb921f93d30d9f5U, 0x3c951db33a1e656bU, 0x3d3d1514bd264a7aU, 0xbcc8d8fdbd2dd84eU,
  0xbf2f510d3ed0d6caU, 0xbf2ea2d53e133f0aU, 0xbf27e5b03ee2bcffU, 0xbea3f9043e8982cbU,
  0xbf120f28bed99093U, 0xbe948096befd5dc9U, 0xbf05c399bf11b9c1U, 0x3cbfb467bd527cebU,
  0x3ca304b3bd84890aU, 0xbc802693bd07993cU, 0xbd0015173ce3c3a0U, 0xbc19783a3d023b3bU,
  0x3d9afc15bcade8eeU, 0x3cea59533d186782U, 0x3d0940f43d5c091cU, 0x3d328ef83d0fbb2fU,
  0x3dbe70fe3cf4f25fU, 0xbd82da613da74fa2U, 0x3d3c7cf03dc37231U, 0x3d8d280cbda5e976U,
  0xbc0ea6b8bc2351e8U, 0x3cbbb691bcbce1e1U, 0xbca656033d55564aU, 0x3d0635683dc82eb0U,
  0x3d8d74f33ddcedabU, 0x3c424c733c9559efU, 0xbd8e2fcf3d8d6a46U, 0x3db41ed43d014133U,
  0x3d00feeabb4a7b12U, 0x3d3d1847bccaf836U, 0xbdb2fb2cbbdb3c3cU, 0x3b40cd7d3d0f26adU,
  0x3cc901303ce370d6U, 0x3d21acc23da90debU, 0x3cbc6b5f3cd7e596U, 0x3d5409a5bbd34f76U,
  0x3ca20db3bd07afecU, 0x3c8cd7783c73d39aU, 0x3ca54e21bb1e3c6cU, 0x3d7e06873daff9beU,
  0x3dbaf34ebd45deb8U, 0x3c04f9353d77d886U, 0x3daa9f0abd28910cU, 0xbc0359583db7ca5fU,
  0x3dc823653da77695U, 0x3d7d17c83ccac5b0U, 0x3bc47ad0bcaf23a5U, 0x3d92e8ba3e027bb5U,
  0x3c8f116b3cf81e00U, 0x3da89257bd851bccU, 0xbd2871423d430706U, 0x3ca8a5903d6600c4U,
  0x3cfe2feebc8db3a2U, 0x3d173ec73c1abd65U, 0x3ddc63583deed8d4U, 0xbdbcbaa8bd132924U,
  0xbd583fe4bd2af3b7U, 0xbc3654c23cf65a1cU, 0x3d8afea33db9d60cU, 0x3cec2ec93deabb57U,
  0x3db0c1fe3e5834eeU, 0xbc2d2aa5bd55534eU, 0xbd141624bcca0e0fU, 0xbdaee445bc18e4a6U,
  0xbca39de2bd2dba21U, 0x3ca4786e3cf02d14U, 0x3d81a1443dc4347eU, 0x3db575833dc9b7bbU,
  0xbd7bc95bbcf8375bU, 0x3d6c841f3da53b5dU, 0xbd7bebdebd3fbc57U, 0x3dc1f7273d8b8026U,
  0x3d583fffbcd4513cU, 0x3eb79bfc3c193792U, 0xbf53c1303f035e3eU, 0x3ee225cabf5110f8U,
  0x3e9c2345bf1c5b62U, 0xbe5f43d1bddc3909U, 0xbe64e164be7b905cU, 0xbe40fdcebe08d348U,
  0xbc9f7ad7be958b0bU, 0xbd809e673d0f6aeaU, 0x3cb3fc2bbcea7befU, 0xbc2fd18c3d8c638bU,
  0x3d8285d5bd26661fU, 0xbd2e69443d2cf572U, 0x3d15ffe93d4f5eeaU, 0x3d30f6bf3d3ec4e2U,
  0x3d838446bcf7770eU, 0xbd86a06fbc75149eU, 0xbb7456313d010be8U, 0x3db969873c904641U,
  0x3d71d7b33cd05cf7U, 0xbd772940bced6ec3U, 0xbd731500bcee462aU, 0x3a3ccce53c78a9e0U,
  0xbbe9b6a33d7e5d9cU, 0x3d8cdccc3c05b720U, 0xbced1bca3d503779U, 0x3c9b30a9bd75fbd6U,
  0x3d0d75bbbd8dcb9bU, 0x3cc62b3c3d37bff9U, 0x3d9877893d28b5c0U, 0xbd55320cbd418185U,
  0x3c8ff029bd197634U, 0x3db965c2bd3d5e30U, 0x3d8ce3ec3d42a3deU, 0x3cebe628ba605347U,
  0xbcf1b38b3b7d9d15U, 0x3d293cbb3d80ac8fU, 0x3da9583c3c881002U, 0xbc83c50b3d511c22U,
  0xba8b3919ba80d682U, 0xbdb78cec3d130d11U, 0xbd333938bc2dd0deU, 0xbc349bd93d7d290aU,
  0x3ca6d9bfbd16e9edU, 0x3d58c22b3d4b559cU, 0x3cd6e7a9bd1ccb24U, 0x3ca41df23cc444c4U,
  0x3dc4319c3dac5e48U, 0x3d890f763d30d5cbU, 0xbd1bb124bb4688cbU, 0x3c1d770c3db82eeaU,
  0x3af57d143c87125cU, 0xbcee2f87bdaec675U, 0xbcf6db6f3c6ac811U, 0x3e0899fabc2f7e76U,
  0xba2c40263c6717a5U, 0x3cbb01b73dff75f2U, 0x3d9b1dfe3c4ff723U, 0xbd4162033ce7d859U,
  0xbcfd38783afdfb12U, 0x3d779ed3bddc1919U, 0xbddb71003dcd4168U, 0x3d478b8b3da4b6b5U,
  0x3d6a36a2bd0955acU, 0xbda73271bc54f86eU, 0xbd4f1db43c749a19U, 0x3cc5882c3d086f64U,
  0xbd1398dcbd7d0edeU, 0xbdddcad6bdb8723cU, 0x3c0e09cc3ce2c14bU, 0x3cc54969bb2e5a81U,
  0x3d97c147bdd5bcdeU, 0xbda0651abcb7daa8U, 0x3b8b00e93ba63d2dU, 0x3f39ece73f193086U,
  0xbe0b3dd2bd3ad77fU, 0xbf0f74093c6b29fdU, 0xbecbecc3bf172efcU, 0xbedb5fecbeba100cU,
  0xbea26b9bbf017e96U, 0xbe8f91ecbe4214c5U, 0x3d858d113be915cdU, 0xbc398ed83c93d29dU,
  0x3d9810893c949ac5U, 0x3d6d322e3dd9bc5bU, 0xbce254863cadc585U, 0xbd237c473d9907c3U,
  0x3d6d37b73ce9ce2aU, 0xbcdc9050bbfe3e90U, 0x3cd9d6ffbc8f6582U, 0xbd7d09493d404b9dU,
  0x3dbaf1b23d007a9bU, 0xbcd167f3bd56ed91U, 0xbd611991bca749beU, 0xbc865f1a3d033ce7U,
  0xbda121eabcb320caU, 0xbd73482a3bffb222U, 0x3da5e274bd2a684eU, 0xbd34eb0dbca4ccafU,
  0xbc5834633d824db1U, 0x3dfb3f773d815682U, 0xbd36b42e3d9ca3d5U, 0xbb8cff9a3dafdb7aU,
  0x3d133e0abbb9431aU, 0x3c3b3d6abcdde4d5U, 0x3d201f673deb04ecU, 0x3d840ee3bdd39f24U,
  0x3cc700583d1b2365U, 0x3cd372183dc58d83U, 0x3cb48da33d2233cfU, 0xbd494911baf93264U,
  0x3cab38d13cedf288U, 0xbd49e833bd87270eU, 0xbdddf2adbd4e87deU, 0xbdc9b1bebd19ad2eU,
  0x3da621d1bc712d11U, 0xbdda627bbc802f52U, 0x3cf4cdedbaa5942cU, 0x3d7bf2a5bd22b166U,
  0xbd47cebbbce067abU, 0xbd3fa2483d1f9913U, 0x3d9d82f8bd5eafc6U, 0xbc70ea97bd8a73f3U,
  0x3ce902683d3e51fbU, 0xbd3d5aabbdafc03cU, 0x3d36b47d3d53169dU, 0xbcdcc588bcd1621cU,
  0x3db57c8cbe085a30U, 0xbd084f4dbd2662bfU, 0xbdb76271bd098da6U, 0x3d807f4ebd58c5cbU,
  0x3cf63648bcda38e6U, 0xbd92000b3db8de3bU, 0xbd0c6225bcdc7a91U, 0xbddebb63bd0c98a2U,
  0x3c33c5da3cea7651U, 0xbd0a65a13d3e8b7fU, 0xbdcda1b4be73d2f8U, 0x3c8987ef3d50ac01U,
  0x3afaa63cbb24bfa0U, 0xbc9ed545bd53a918U, 0x3d643362bd06a285U, 0x3df8b40bbcbde3a4U,
  0xbded51efbe041c74U, 0xbddd27fd3dce1afaU, 0x3d22f237bcf5b93bU, 0xbb1222af3db24dd8U,
  0xbf1790bf3da7c2c6U, 0xbf34df563eaaf319U, 0x3eeeb9bbbec14b0eU, 0xbf1bff3f3eca4667U,
  0xbe5107683d939d10U, 0xbe2839f13dc4c94fU, 0xbe448ad6be2e549eU, 0x3c32f22ebe906683U,
  0x3be954dcbd6b5989U, 0x3ce537883dfe756cU, 0x3d5c5229bc250553U, 0xbc6aded13d1a42e0U,
  0x3da018793b22fa94U, 0x3ddd3744bd7a5da8U, 0xbd7a574ebcfd131aU, 0x3d9126463c729669U,
  0x3d9c6362bccbae15U, 0xbd010a2dbd10c69dU, 0xbdf31758bcfe95eaU, 0x3de2227dbd6d47a8U,
  0x3d57252cbd0d6a9cU, 0xbd569e2e3dd4a101U, 0x3adf961cbadd6fcdU, 0xbde943d53c04a51dU,
  0xbdae0b353de38c17U, 0xbb35e0563d4ce24eU, 0x3d0ad766bca59ef0U, 0xbd9843b53decba05U,
  0x3d816b8c3cb2b483U, 0xbd176dc9bd201537U, 0x3c9758c33dd54f87U, 0x3deb3084bd904f9eU,
  0xbc3bf1643d2c02a7U, 0x3d9948313cfa7cadU, 0xbcb6bf85bd3ea2abU, 0xbd6f87f23caf472bU,
  0x3d74fa493d8f84e4U, 0x3d0a059fbc902859U, 0xbdd31d72bcac8679U, 0xbd4d1d223dd05e1dU,
  0x3cbb0f2ebdc3f5c4U, 0xbd93020cbdfa8754U, 0xbcc6935e3d7efe06U, 0x3da8ee4f3c1e4025U,
  0x3d0650333cf81fe8U, 0xbd8c55bb3d92227cU, 0xbc45a316bd5ad6c4U, 0xbd52af5abc79581bU,
  0x3d4ead74bc4bbe66U, 0x3d841d6bbd515d91U, 0xbdcdb90e3c06a061U, 0xbba8240d3d900309U,
  0x3d36e4d2bd83f1b0U, 0x3ccb075bbd7c45d9U, 0x3caa01303d619ff4U, 0xbd7595d7bbed0cd4U,
  0xbd8d6d0abe1120bfU, 0x3cd7cefe3da6b95cU, 0xbc7c92b9bd231fe5U, 0xbd21a8b5bd087065U,
  0xbcf8b1b43de755dcU, 0x3d87eebfbe08c505U, 0xbd3f2732bdb0ae97U, 0xbd78851f3d828b2aU,
  0x3c9380b3bdbcab18U, 0xbc9312c3bd8a2247U, 0x3c7e62f6bbe71843U, 0x3db17b533d9387f5U,
  0xbcad9f9abd986879U, 0xbd82497a3db3e3b8U, 0x3dab5b6abcf61312U, 0xbc897bb2bb9ee2a6U,
  0x3cb6f32dbd32f728U, 0x3df705623d75434fU, 0x3db72859bf0f0fdeU, 0xbf0a85b6bec50fdcU,
  0x3f1dbaf83e6fc553U, 0x3db7a1cfbedc06bbU, 0x3e1eb78e3d495bbdU, 0x3e8583c83e2f4ee2U,
  0x3e2599cf3de3241cU, 0x3ce519013bd656a2U, 0xbdb438cf3d75d891U, 0xbb9f97debd3082f1U,
  0x3d25ecc3bb755df5U, 0x3bd6b1c03da3c155U, 0x3d2f7739bc9069beU, 0x3d6ed16ebb9be473U,
  0x3c8326b83dae9f4aU, 0xbbd6f0c23d923da6U, 0x3e023dca3c18447dU, 0xbb548a853d99c47fU,
  0x3dcfbc10bc5be332U, 0xbc822675bd81352dU, 0x3ab79df8bd63603aU, 0x3d01f6663d87c155U,
  0xbd1befa73d9a0750U, 0x3d82039a3d7f3fd8U, 0xbc029669bd08b2c8U, 0xbcfbf7023d23bff5U,
  0x3d5f5cf93c35e04bU, 0xbd9052fa3cafbd58U, 0x3ac97a203d3f7521U, 0xbd9758cd3ce2a947U,
  0x3cd193e2bd887bd9U, 0xbcf1f5bbbd6a10bbU, 0x3d3660a5bc931428U, 0xbcf6bee2bd12e8b1U,
  0xbd80dbf83beba021U, 0xbce7308ebde56267U, 0xbda09416ba267923U, 0x3dcc1be9bc8c5f09U,
  0xbce61af7bc796c93U, 0x3d68d9663c580f9cU, 0x3e32e7a23d760be5U, 0xbc6533433e8e8b04U,
  0x3c5e480f3d4b31c9U, 0x3c64726a3dcf5f6bU, 0x3cb1ab973da3d08cU, 0xbcb7a151bda7185bU,
  0xbca0df283bec0dd5U, 0x3dc998d03c8b6accU, 0xbd177307bc7f6eb6U, 0xbd747b8c3cda7ac0U,
  0xbd3b32b3bd0fe74aU, 0x3cfb58153e25968aU, 0x3dde8ce03db3712dU, 0x3de2e5e43d5ca056U,
  0xbbb8d3783dd2fda1U, 0xbd4a9d563d984520U, 0x3daf31f4bd806f12U, 0xbdc81db53d0958dfU,
  0x3d9684403cd497f3U, 0xbb186adfbe05e1e0U, 0x3c2b04203d8f6b24U, 0x3dade5b63db4c104U,
  0xbd36aaf73da054e1U, 0x3dca62453de5a95cU, 0x3d1d84c8bc0c7169U, 0x3dd559babc98924fU,
  0xbdec79f3bd9da38eU, 0xbc84d2a23df86678U, 0x3e32ef47be22eb5aU, 0xbded1974be1d49ddU,
  0x3dc4ab98bdfda5a1U, 0x3c05f3edbcb8d2b4U, 0x3c0bdc103de0ca26U, 0x3f0ca7f63e07b992U,
  0x3f1939eebedb5c04U, 0x3e44c1093ea8aa17U, 0xbed96ad2be26eb7aU, 0x3e6638c2bcf05344U,
  0x3db48798bda5750aU, 0x3d865eb53de37e97U, 0x3c4ba87d3e439313U, 0xbd59e363bd29ec85U,
  0xbca0c6203d605375U, 0x3d147e703c8daf88U, 0x3d08fb673d06b3a9U, 0x3cabf2873da1c40bU,
  0x3dcdb5423cff44f0U, 0xbc9e5910bab83d8fU, 0x3cda94cd3d8cbbd5U, 0x3d129e8b3cf9968fU,
  0x3d56c3b03da3f7b3U, 0xbd0a3a3639faff9fU, 0x3d3337ddbc9718ceU, 0xbd23b7ee3c22c86fU,
  0x3dc68ab03c7b20eaU, 0x3de8bc053d953fafU, 0x3d8a36753d019165U, 0x3c827d4b3dc0f902U,
  0x3dbe14f8bcc18559U, 0xbd4e3f263c94533bU, 0xbd7ae8633c832eceU, 0x3d8223f6bd265a9cU,
  0xbd9a590cbdac9c84U, 0xbd81dfc13caaf28bU, 0xbcc7cc963d18e634U, 0x3ddcfa1b3db4c9dfU,
  0x3d3e27a03db7fe7aU, 0x3ca78fcc3d054ad6U, 0xbc2113c6bccfc94aU, 0xbcb6eb4b3da42d09U,
  0xbcd3f7c13b848e91U, 0x3ca91166bd0d6986U, 0xbd6790753cdd5b20U, 0xbd1a21123d412751U,
  0x3cffa85dbd77d9d2U, 0x3d7162163dcc4541U, 0xbba4a7e73dc50d2cU, 0x3c804324bd643de1U,
  0xbb9b21dd3ddd7dfdU, 0x3dcc3ffcbd894ccdU, 0x3d9449e43c8a0637U, 0xbc1f222bbcf111ccU,
  0xbcea93203db8f468U, 0xbdb68017bd1823e1U, 0x3c8be4cfbcf87393U, 0x3d70e472bd61c199U,
  0xbbd091593dc5cd84U, 0xbc19c0933dd7eed7U, 0xbc96c6c3bdae8bd2U, 0xbe222070bddc18d9U,
  0x3d5676403b23f87bU, 0xbd08ce313ccadba2U, 0xbc50e5d93d0ce741U, 0x3d0020513da9d367U,
  0xbddcc083bdb2683dU, 0x3d6367463e2e7ab5U, 0x3dc1321c3d592b15U, 0x3a65d70f3d92a49eU,
  0xbe422dffbe847abdU, 0xbe36b72d3da8f081U, 0x3bc6c4dabea88249U, 0x3d09cb7c3e00da80U,
  0x3e543457bd65c8ecU, 0xbc4994913dff8ab0U, 0x3dd0bba839bb4b61U, 0x3d0d845e3d9e72a1U,
  0x3c6de4f53d1be999U, 0x3f4f1f303e9825ecU, 0xbf26622b3e79e73cU, 0x3e9e01a5bf294a88U,
  0xbe5b47ff3ed0c726U, 0xbe64c0b3be0276a0U, 0x3e0bf46d3df90777U, 0xbe2423c7be1ca670U,
  0x3c913fd23dc2f920U, 0x3e038430bc88af7fU, 0xbd66b54fbd58c59dU, 0xbccc1f213ded8566U,
  0x3de739703c0c25d9U, 0x3c234a853d80bb4cU, 0x3d218452bbd99a64U, 0x3ddfdc7dbd01ea26U,
  0x3cee16453d20b818U, 0x3d05b2953e159ad1U, 0x3e0041c8bd081969U, 0x3b118bfdbd926194U,
  0x3bb9500ebaae194dU, 0x3db899393d263b9fU, 0xbe078b6cbcdfb094U, 0xbd13fa023d12dbdfU,
  0xbaed0ffdbde5ff8aU, 0xbd7be327bdea5d9eU, 0xbd7bb33c3d99aa81U, 0x3de6f8533cb2b194U,
  0xbd5e59ee3d045310U, 0xbc5943dc38bd2df7U, 0x3de509f0bd6107aeU, 0xbcc400a0bd1d7706U,
  0xbd0ad113bd398f85U, 0xbc43157dbe2235d4U, 0xbdae8389bce63406U, 0xbd5dd8443d68300bU,
  0xbc67eb43be0c92eaU, 0xbd7d1002bd5538d7U, 0x3d014f353ddaaafeU, 0xbd2ae87cbdc29afdU,
  0xbd1ef769bc2cb0b9U, 0xbcd5db393dfa1b0cU, 0x3c0abb5fbdd37424U, 0xbd917b7cbb25d095U,
  0x3cc8a9a53d9dd1a1U, 0x3cff9be4bcc74a03U, 0xbcf55393bd01bff5U, 0x3d054b043dbb156eU,
  0x3d37d533bd8ebb06U, 0xbda34d99bd65dbf2U, 0xbd60b5573c3df7f8U, 0x3de435a6bd7b8da1U,
  0xbd32dc86bd54c77dU, 0xbd2754993db5d36cU, 0x3d24dab93d4738b5U, 0x3c00ad02bd41330aU,
  0x3d97ab3e3d62fac9U, 0x3d052fc7bbefcb7fU, 0x3c5f89c6bde8350eU, 0xbd37e5c53dc6f359U,
  0x3cbcd196be44db0dU, 0xbdee162abcd7c401U, 0xbcec17283d205951U, 0x3d05028dba687b12U,
  0x3bcfb777bb8b3712U, 0xbdecf0523c87a29fU, 0xbce1ab8abcfadf5eU, 0xbd092873bcbfd89cU,
  0xbe10d4dbbd76292fU, 0x3dd73d14bdaf7fefU, 0xbdf8cb41be2edf6aU, 0x3de1b283bcc74c87U,
  0x3cf57c583dbd2a13U, 0xbc1b92ccbd03eb67U, 0xbe48d2523ddda9e6U, 0xbe8d2b503cf383a7U,
  0xbee86ab7be5ebd8eU, 0xbe6030c53e756b1fU, 0x3b8301313d949fb1U, 0x3d24fdf23e22ccaeU,
  0xbd6d96dc3d9689abU, 0x3d21cbb03e25bfd1U, 0x3c94e473bdcfc9eeU, 0xbd47c47c3dd2e54aU,
  0x3d382b80bdd49e70U, 0xbd3a03483be6ecb6U, 0xbd45812f3ccd8eceU, 0x3dcf110ebc925a06U,
  0x3c8ff0913c267288U, 0xbd2a71e53de8eaa5U, 0x3dbf6985bb7bd1ffU, 0xbda09f1abc891ec8U,
  0x35e8c2d63ddcdff8U, 0x3ca14966bd898712U, 0x3d7801a33d2804a6U, 0xbc01491d3d689dadU,
  0x3d4d8491bd9cc32fU, 0x3b030012bd9abd95U, 0xbd0d24fa3db311d7U, 0x3c9eb8b1bd8f7c4cU,
  0x3c309914bd3175c1U, 0xbdf5e1f63e00520aU, 0x3ca7da2ebc893692U, 0xbcef222ebd791012U,
  0xbd9f61723d3aa434U, 0x3d9514a8be025e5fU, 0xbdb963f0bd30232fU, 0xbcadf1293d81eb66U,
  0x3d500c33be0818c5U, 0xbd6fc7263d0d18eaU, 0xbd16ca813da21d7aU, 0x3cec796ebcb7688eU,
  0xbe07b971bc4125a2U, 0x3c8e62aa3d9cfaa3U, 0xbcdbf595bd56ef6bU, 0xbd9a529cbe03c544U,
  0x3b2d0583bd1c8aa1U, 0x3dae5bcf3d765f39U, 0xbdde88fcbdb2c852U, 0x3cfb7e063c8a5a4aU,
  0xbd2ad4f23cc770d9U, 0xbdf4fad8bce1922cU, 0xbd4953cc3da721e1U, 0x3cf43b62bdc9adf9U,
  0xbdd48b72bd18c973U, 0xbdc36a203db24855U, 0xbcaa1f04bd6b22c8U, 0xbd0af337bd1e8d4fU,
  0xbc20d6c73cbf9befU, 0xbd72db29bddcd67eU, 0x3c1c245bbcac33faU, 0xbdd97337bc30abceU,
  0x3dec84bfbdc37f2eU, 0xbe20eefcbd9c1be2U, 0xbd385ae63d44e1a5U, 0x3de91ef23d13c856U,
  0xbcb38db0bd8c6b26U, 0x3c328211bc0c9a87U, 0xbd07f67d3c351536U, 0xbdf53f7bbe089009U,
  0xbc6a02b83da45430U, 0x3cd5968ebadbef36U, 0xbe0bba2ebd878811U, 0xbda87fbcbd459b08U,
  0xbb936571bca1445fU, 0x3d1ba3bb3cbbd2e2U, 0xbd5ff4e03dc6532eU, 0xbc0a2361bc593196U,
  0xbeaba88bbe81c0a4U, 0xbf0970033e27c776U, 0x3d0ea8e13ec33e68U, 0x3d98daa7bdd725f7U,
  0x3e4434323db51a5bU, 0x3eae3a473df2d212U, 0x3e78532c3e05c958U, 0xbc3955b13e1736b8U,
  0x3d79acc6bc0dd03eU, 0xbcd98bc03de0b5bdU, 0x3d14975e3c104ce0U, 0x3de9f0dcbd8409d9U,
  0xbcfe61f53b3a124fU, 0xbd6797413db2ea26U, 0x3d8b404dbd8c6b4fU, 0x3de88500bd3c8b4bU,
  0xbc8fdc7c3d6c9598U, 0x3d5fb9cdbde218ecU, 0x3d2472d03d232988U, 0xbd4f43e13bfe9435U,
  0x3d8c2997bb35f549U, 0xbdd948793d3d1ce2U, 0x3dbb1c4fbd268893U, 0xbc67628abdf8870aU,
  0x3d944c02bd1cb68cU, 0xbc5fc8d93dcad76aU, 0x3dd114793c54c2a9U, 0xbcfe30d73bedcf47U,
  0xbbb3df5b3d7da0ceU, 0x3d23060abbf6c163U, 0xbe306fadbe34ac21U, 0x3ce3faba3d7ad13cU,
  0x3c232acebddcef89U, 0xbe0d17f83d8cfe0fU, 0x3c3f25fdbc91c2eaU, 0x3dc69489ba74e842U,
  0x3dd162c8bba0e667U, 0xbc90abdf3d86b844U, 0xbd74d382bca10dc5U, 0xbc87a305bc017c0aU,
  0xbcc1ed1fbc8019fdU, 0x3d79bcd8be029debU, 0x3d298fd4396f806bU, 0x3d2cad8ebd4c7f8dU,
  0x3cd7c3e6bd24e0afU, 0xbe07a2acbd65da59U, 0xbdd5f3023d82ce90U, 0xbd67813bbe14f4b9U,
  0xbd20719dbe157c70U, 0xbdfbea643d37ca63U, 0x3d67532e3c1e0032U, 0x3c942271bdb47d44U,
  0x3c3c0afd3d8123b8U, 0xbd280dc0bd44f9deU, 0xbc18829f3d2458c4U, 0xbd3d2789bcf60f8cU,
  0xbcb96e15bda2e770U, 0xbdd0f2d7bdeac6e0U, 0x3ce202183d640730U, 0xbc8edc653d8231f2U,
  0x3ded68e43d173f35U, 0xbe823064bcff3297U, 0x3b53d380be068d4aU, 0xbc052a2c3aacfe38U,
  0xbcbb2d113d94878fU, 0x3d901ea53c81570aU, 0xbdd0f93bbd99d97aU, 0x3a53b09fbd92bd0bU,
  0xbcef978abd78246dU, 0x3de2d80a3e027e3fU, 0x3d716f663cbbdc87U, 0x3d853759bc281974U,
  0xbc9af31a3d7361baU, 0x3eb5f52e3d479ea0U, 0xbe9e5c3cbf8ced28U, 0xbf6de060bf312ad9U,
  0x3e242c4c3e91517dU, 0xbe9b9967be98d8f6U, 0xbec8bca0bed51d7eU, 0xbe9be122bf0087e3U,
  0xbcd36202beb8e67fU, 0x3be82f383cd707c5U, 0x3d72ee563cdfbe71U, 0xbc3af54cbbbaf7e4U,
  0xbc705347bc5dc5beU, 0xba9ac813bc590220U, 0x3d462a333d99f06bU, 0x3d4425d63bfa6b60U,
  0xbc0c8d07bd28ebf4U, 0x3d10bc733bb1542aU, 0xbcead07bbd0d0e36U, 0x3d5faec73bb8e314U,
  0x3d7784db3c8fde2cU, 0x3c9150bebc034123U, 0x3c14c8883d43b6ceU, 0x3d59d5753c0b75deU,
  0xbcc41bf13c4c42ebU, 0x3cac3801bcd31f03U, 0x3d9299793d16fa13U, 0x3d2f0e1c3d911ec0U,
  0x3d07bc363cedc350U, 0x3ccb4a673c818dbeU, 0x3d14540ebc4b3e5dU, 0x37f5b01a3d433db5U,
  0xbcce21193c3a91d9U, 0x3ce44956bd8b577cU, 0x3c70efddbc04be35U, 0x3a749b253d1fa5b4U,
  0x3c4a51e73d253baeU, 0x3d9483a13d329e3bU, 0x3c6dc5533dfdd78cU, 0x3d1d57933cc54a01U,
  0x3d3b0468bd3f9a73U, 0x3c0f65773ce3a650U, 0x3d2b6e6b3d9a269bU, 0xbc5314d33d27f38dU,
  0xbbdf0ad23d698379U, 0x3a7fd80d3c8c0675U, 0x3db5c0543cc7615eU, 0xbd866cff3e017b82U,
  0xbd00c5b73cbc7269U, 0x3d411f413d0ec355U, 0xbd31e5a13d0140b1U, 0xbc229fac3d28c365U,
  0x3def08923d0f4440U, 0xbc9efdc8bd92af5aU, 0x3d883c423d1c7de9U, 0x3c9a86babd49dbcbU,
  0x3c9438c43d679eadU, 0x3d2706df3de4dd09U, 0x3c86feefbd21356eU, 0xbc668c48bd958b65U,
  0x3d0e8d0c3d04a04fU, 0x3d1eb943bc5e5be1U, 0xbd08bd513d920e7cU, 0xbc4defa53dd676d8U,
  0x3e1030e9bd4a61c7U, 0x3d94b1523de04c34U, 0x3e2818473e2aa522U, 0xbd53d9fc3d4d73d3U,
  0xbd269c84be083d94U, 0xbc8b1195bd356d89U, 0xbdd362533d928c31U, 0xbdb3e160be00c325U,
  0x3d8c146dbd6c6b1bU, 0x3dc073953c9b3fbfU, 0x3d7420923d3dca82U, 0x3ecdc2a63eee62e2U,
  0x3edf0dea3ebcbf7bU, 0x3ebedb31bf188f6aU, 0xbe9a5689bf164861U, 0xbe6dd182bea2bc75U,
  0x3d667d2bbeb615d6U, 0xbdddec93be6fdf8eU, 0x3bd9a305bd8a7943U, 0x3d91f987bd6960a8U,
  0x3cced75d3ce065f2U, 0x3c30ddea3cecb7dfU, 0x3d853d8abbcaa774U, 0x3de6274fbcb1e0abU,
  0xbd4f6ef7bd918502U, 0x3c3fc352bce30c31U, 0x3c47ec9fbba62fcbU, 0xbcec43c4bd39bdacU,
  0xbbfb707fbd8ebdb2U, 0xbd0ce30e3c76d8e7U, 0x3cfa9df4bca1bf8dU, 0x3c6db001bd0b6627U,
  0x3d59894a3d695f8cU, 0xbd4b14d03c4d0871U, 0x3c468481bca3de03U, 0xbc1da3c7bd46a0edU,
  0xbc3be8bf3d3a7d76U, 0x3d24f9c13d519540U, 0x3cebd2233d72ed0fU, 0xbce6d7bfbd8fd2bdU,
  0xbd251c0e3bdfabe7U, 0x3c858fefbd062651U, 0x3ce0c96cba7f2004U, 0xbc8090f3bd28d584U,
  0xbadd1bf8bc03cab8U, 0x3d5c2f933d076d40U, 0x3b36a2be3d3cca36U, 0x3d08079bbccb9f4cU,
  0x3ce086aebd04b7a2U, 0x3d2818903d4a8bfeU, 0x3d815a3f3dc93f6bU, 0xbd7a7747bd69cb69U,
  0x3d8ea338bd1e6514U, 0x3d8bf25c3deb5655U, 0x3ca57d30bc4643a0U, 0x3d64838f3c912742U,
  0x3c7567523d65c736U, 0xbd7a9f913d6cfb84U, 0x3d4d85163d4faec6U, 0x3db40ac43bd388b4U,
  0xbc2fd0643d609c90U, 0xbd9fa3d43d4c0d73U, 0xbda0f6223d9afe05U, 0xbd58a448bd9fb175U,
  0x3d729dfcbcdbca0aU, 0x3c59790e3d3d18feU, 0x3c80c5a2bc0d5fd9U, 0x3bc8d519bdc1643aU,
  0x3d4b81df3d9f3df7U, 0xbd3bf10dbd8a3312U, 0xbdac8ceb3d141797U, 0x3dea5e2f3e162a70U,
  0x3de7355ebd791b73U, 0x3d0e60833bb5b2b7U, 0x3b11a2fe3c8fdb73U, 0xbd751d5ebd0055fbU,
  0x3b91017bbdba2934U, 0xbd6df9f1bd3d9448U, 0x3cb942b7bc48125aU, 0xbd2331343d1972cdU,
  0x3d8d13da3def59c6U, 0xbd8d4a583d157fbdU, 0x3cf1be4cbd9d404dU, 0x3cdd4c1ebd0265d1U,
  0x3d8308febc48073dU, 0x3ad35c8f3eb2e82eU, 0xbf1b5aaabf359bf3U, 0x3e5a4c9cbd4cca4dU,
  0xbeb0e80bbea7a261U, 0xbe05d289befe97b1U, 0xbeb5f476bf496a3bU, 0x3da35387bef01b99U,
  0xbd32d9c4bda63a91U, 0xbd7f99ce3dedccc1U, 0xbbcc75613d5baf51U, 0x3cbadd08bcc2f7f4U,
  0x3ccfe4303db934e9U, 0x3ce64f23bceb948eU, 0x3d856c5fbd115ffdU, 0xbcbfe7f63cd48a73U,
  0x3e04a0c6bcc9a0f1U, 0x3c4a0e81bd2666b6U, 0xbd2fb81d3d8cf7c6U, 0x3cb77e2fbd04dcd6U,
  0xbbd9a2143c4f34e4U, 0x3d9256ebbd0ebf70U, 0xbd54423f3cf0925cU, 0x3d9adfa33aed1d12U,
  0xbd433c31b9d3e484U, 0xbc9aa4933d941c79U, 0xbd2dfbae3c0948f0U, 0xbd0d10603e07a964U,
  0xbc5d2d7f3b166dcbU, 0xbd2a3bd0bd9929dbU, 0xbdbc91843d18199aU, 0x3be4e54c3cf5604eU,
  0x3c85066f3de40bc9U, 0xbd05ca2fbaa4c565U, 0x3cc2f97ebd297d30U, 0x3d773233b9e999bdU,
  0x3dca0b5d3a7ab608U, 0x3d89b2e33d21ad56U, 0xbdfa7f46bc7c5077U, 0xbda64747bc413a35U,
  0x3c915941bd7d433aU, 0x3c84dfffbd2663adU, 0x3d40ab75bc4874feU, 0x3c52fbeabd1dea62U,
  0x3dba70b53da769d6U, 0x3cf61d373dbbb62cU, 0xbbc050043d9791dbU, 0x3d45bd933da6e9e2U,
  0x3dc1c8413d879c0dU, 0xbd6118d33ba0acd6U, 0x3d400d5b3d948e96U, 0x3a3d88c93d008f87U,
  0x3d8a70373d4fc512U, 0x3c9bf9813d4d7407U, 0x3ca3133b3da133ceU, 0x3d7d47adbd5681e9U,
  0x3e1a7cd33e2e26d0U, 0xbc0de3633d78ba58U, 0x3d98350a3cba0d08U, 0xbd2e4f79bb931d28U,
  0xbd71caf23dcb2453U, 0x3ac74b20bb949fdaU, 0x3e4d8b303d5756f0U, 0xbd8036c7bd01aef2U,
  0xbd01dcdfbd9a2e5eU, 0x3d810d8f3d402f60U, 0xbd040b953a0b5b01U, 0xbd60f1a43c6b9e8dU,
  0x3d0f469d3d0289e6U, 0xbe2cb3aa3dc40acdU, 0x3d9e00d2bdf2361aU, 0x3da5c5b23d020372U,
  0x3dcf22403dc7e70dU, 0x3c35e9233c49801aU, 0x3f417861bee240f2U, 0x3ea65a6ebe9cc699U,
  0xbdbdf5bebec13e7eU, 0x3e28da63bee91b65U, 0x3e8c8c10bc7f6116U, 0x3e48cf9f3e92228cU,
  0x3e3c877d3e000676U, 0x3d4aa8a6bb06cc83U, 0x3d08608a3c71ada7U, 0x398209ad3cc7a1b3U,
  0xbbd10242bd43fee6U, 0xbd139df93d98f61fU, 0xbc1b578ebca4a153U, 0xbd09c836bd4fcefdU,
  0xbd37dad53d19a8fdU, 0xbc8d19c23bdd6262U, 0xbcd2f55bbcb174e7U, 0xbd96a0f43ce46657U,
  0x3d63da9a3d225297U, 0xbccaeff2bd8638d1U, 0x3d8801c3bd55bde9U, 0xba91f846bd407defU,
  0xbd2da91e3c2b7c6aU, 0x3c914fab3d0b0349U, 0xbc0b868d3cc36b51U, 0x3e0ff3373c84bf78U,
  0x3d98a8473dc1f3c8U, 0x3c235ddebb2cd482U, 0xbccd4551bd5546abU, 0x3aa6a79cbd930856U,
  0xbd926a52bd5a9614U, 0xbc9c9caf3ccd8c3dU, 0xbd24be50bbd49378U, 0xbaa353f7bd34b329U,
  0x3dcd313b3d45766fU, 0x3c98ab3e3d9a63a7U, 0x3dc3a6953e011c29U, 0xbd468cf83d184ad3U,
  0xbcd6a1b23cc6aabbU, 0x3d9dd2463cf07b11U, 0xbd856daebcfe2663U, 0xbcd5f6583c0aef5aU,
  0x3d8fb50a3cfe99f5U, 0x3d871d0e3db34a56U, 0xbd48c4b13d7efcdaU, 0x3c0822ff3db1d0ecU,
  0xbc80864b3d1bce1cU, 0xbd13b4c13de1ab5fU, 0x3bc34787bd1afbaeU, 0x3cfdb6c93af58a51U,
  0xbc66f2663dcb0148U, 0x3d08fafc3b786551U, 0xbcf549b33d5e65f7U, 0xbd570906bd8d9d88U,
  0x3b7f6dcc3c6f27ecU, 0x3ddbc8533d5f2045U, 0x3d5487333dabbfccU, 0xbca589cf3d03b09bU,
  0xbbe45b343da27fafU, 0x3d97b4283dafd66fU, 0x3c176e13bb55afbaU, 0xbd83cbcd3dc5d89bU,
  0xbbf76af13d2b729fU, 0xbda7206ebcca3d59U, 0xbc70695b3d2f89f8U, 0xbc92fd933d4d279aU,
  0xbce9553fbd865927U, 0x3d84856dbd99d1cbU, 0x3d3efaf13e644f0fU, 0xbe3e8748bdd2425bU,
  0x3cb71d433dca8caaU, 0xbce2b4e73d199ae0U, 0xbd8c3e993cc4a4a4U, 0xbf199777bb30017cU,
  0xbe84217f3db5b885U, 0xbeb9bf083ee4da53U, 0xbf140e393f46d698U, 0x3e9b785d3e2f4f04U,
  0x3e8749423dee7c09U, 0xbe73ed623ece8c29U, 0x3cf9c8ab3e4ad341U, 0x3d351747bbcbbebcU,
  0x3c2dc8613d939b18U, 0x3dc63e1d3cb160b0U, 0x3d6848893d5491a6U, 0x3d07b72e3cdacb59U,
  0xbc072a923d9dcca1U, 0x3dc7bcabbda34fd3U, 0x3d68bb9bbc116c66U, 0x3d8f402ebc0e703eU,
  0x3da5fbac3d43dd92U, 0x3d1e72913c634c21U, 0xbd47ac053d82c74aU, 0xbd874774bb2bcf42U,
  0xbb1da3703da4b330U, 0xbc90310ebc55f7d8U, 0xbbcf4e77bdb1109fU, 0xbdb310c23d07294bU,
  0x3d52b1343b669c86U, 0x3c3ccb973d1f9aa9U, 0x3cfd9b6c3db1b3c8U, 0x3d8a12eabc516522U,
  0x3deb0ff93e046d93U, 0x3d5ea1b13d968df4U, 0x3dd9693b3c80cd99U, 0x3d8c35413c13bca1U,
  0x3cd6f08c3d3bdd68U, 0xbd043c37bc6b96e9U, 0xbcf04565bda8a50aU, 0xbca9e3603c3bcdc6U,
  0xbc9894b6bc29e3f9U, 0xbc43fd63bd44b665U, 0x3c35018ebd4419e6U, 0x3d6da4893cd1923cU,
  0xbd41c82ebdcf7389U, 0x3dc535b13cc5b98cU, 0x3d6522d53d15fdfeU, 0x3d97817c3dbd5b13U,
  0x3db788d53ceb99a8U, 0x3dbc6a7c3c8e3b6cU, 0x3d7a1a563dff30a8U, 0xbc8b1ef5bca5f4d7U,
  0x3d562e62bd7f26b2U, 0x3babad6f3dbd06f6U, 0x3d869badbc5d6999U, 0x3db9cb49bd934d20U,
  0x3db0c2b0bd008203U, 0xbd89fb663d2f36b6U, 0x3d35d8cd3cf2918fU, 0x3d2fc0673ca3b567U,
  0xbd57d2e93dbb7bffU, 0xbb42f4babd13ee8bU, 0xbd4c7f7d3bc615b7U, 0x3e2d69c5bc798c68U,
  0xbd256a4e3e342959U, 0xbd0786c63d0b00fdU, 0xbd5a097f3d0edcdaU, 0x3d28c2bfbe00c2d4U,
  0x3d641cbabc8bab21U, 0xbe25eb9f3d9d1ed3U, 0xbd42f16abdb37e9bU, 0x3dd0ed063d86a3d0U,
  0x3cb6a7353d416a91U, 0xbb9cfeeabd8865eaU, 0xbd09b7d4bdb31c11U, 0x3d4f87babcf40136U,
  0xbd22cf41bd466facU, 0x3ed370a03ee905a6U, 0x3e3ef4c0bf53007dU, 0x3ebe890ebf369e9dU,
  0xbe5243773dbea44dU, 0xbe4984c8be4859dcU, 0x3d095df9be28a9c1U, 0xbe801e13be6a7198U,
  0xbd9400bf3cfb2e7cU, 0x3da9cb46bdc52e88U, 0xbcdf35493d0e9217U, 0xbcca759a3df1c9aeU,
  0x3e0f1c293b6ee6c9U, 0xbdcc95a8bd23f9bbU, 0x3cb694373de11d0fU, 0x3d7ef518bde73250U,
  0xbc367aeb3d797c03U, 0x3d5fcc1f3d533a25U, 0x3d720b4c3ba4abb3U, 0xbd2a55e4bdceffa2U,
  0x3ccf954e3dd03ce9U, 0xbb95d717bc5e01e2U, 0xbdefaecabd9db1c5U, 0x3d0953963d9d3979U,
  0x3d9e5657be0814c4U, 0xbdcd2122bd8fb9a2U, 0xba95883c3cee827dU, 0xbb658b8dbdf442ddU,
  0xbcb89c84bddfcdb2U, 0xbc5a2d193c20b341U, 0x3d96db8ebd681e2dU, 0xbd54495fbdf294f9U,
  0xbd4626c73c736aedU, 0x3c5556bcbd87b313U, 0xbdb88f55bdc1f0abU, 0xbda3fe3ebc41dcc3U,
  0xbcf6997cbd13c9a1U, 0xbd925bf7be09a3f1U, 0x3cce981f3ddd1cd4U, 0x3caf3d6dbb2d7fefU,
  0x3c909c9abcd7e5a2U, 0xbde64f963d489346U, 0x3d969a9abe0e5019U, 0xbcbc9367bd569adcU,
  0xbd7b328f3dcb3090U, 0xbbdeb4343cb6e6aaU, 0x3cac98fabc993510U, 0xbd488e2f3dbd6375U,
  0x3d3a4a0cbcf6a240U, 0xbdbcfc9abd5db63eU, 0xbd6f3e2ebc9b0fd6U, 0x3d593673bc56f1f3U,
  0xb9e2ca3cbe05973bU, 0x3d5716013d5618bdU, 0xbd5bdc1c3ae67b8dU, 0xbd595dabbcf948cfU,
  0xbc1b1df03d02a7b3U, 0x3ba5e123bd9a71a3U, 0xbd977eccbda0f6e1U, 0xbca2ce7a3d8683a2U,
  0x3da365cebdc0d904U, 0xbb1e69b8bde34853U, 0xbcf88c8b3c7fb788U, 0x3d063d22bda799bbU,
  0xbdc00999bcaae2cfU, 0xbcdf13d03d92e70fU, 0x3d48aa3cbd4e9880U, 0x3bf179893b9f9e8cU,
  0xbd12b8163db8e8f4U, 0x3d2ed4943c50be25U, 0x3a8b4191bdf966bbU, 0x3dacb414bd0eb054U,
  0x3dc8a0e13d64c65fU, 0xbcd2b4a1bd5f8968U, 0xbe9ec395bcf34110U, 0xbcfbf1debda50f15U,
  0x3e70d0a4be8ee27bU, 0x3d03c036be1040d7U, 0x3de2e2bf3e7022f4U, 0x3df0f8323dc6eb9aU,
  0x3df48c733e627abdU, 0x3c0d76723e58ce76U, 0xbd3a93cfbd749152U, 0xbc6017bbbc4019d6U,
  0xbb5b7fac3c6dd55eU, 0x3d598923bd373890U, 0xbc1ae4e63cb3e8c8U, 0xbd4ba0413d23fb9cU,
  0x38d8ecf4bd9dd380U, 0xbc95c9153b8057d5U, 0xbce7cc40bd66cad6U, 0x3d7cb0be3cdc1d9dU,
  0xbb4e88463d8d3b9bU, 0x3c5bb27dbd249676U, 0xbd3c36c83bb57c1bU, 0x3d30f43abd6805ccU,
  0xbd3263c13c717436U, 0xbdb7ce543d855b53U, 0xbc5e3b673cd6c237U, 0xbd9bb43abbd70e8dU,
  0x3d1ec8e83e034b8eU, 0xbd0973c8bdb18b1fU, 0x3c442a8cbd69a3acU, 0xbd05623ebc9aa84dU,
  0xbc62b2c9bd29daf1U, 0x3dbe8cd7be023ab2U, 0x3d6ca445bc9e6da5U, 0xbd0ba35f3d956adbU,
  0x3d116dccbce7e8e7U, 0xbd64b637bcf6b72dU, 0x3cda7dd13d91fda8U, 0x3cfed9753dce7752U,
  0x3c6856f9bc902c55U, 0x3ccc46f73d225690U, 0x3d55b724bcacff31U, 0xbdbd88edbd04dcd9U,
  0x3c573dddbd8aae17U, 0x3bfafa5f3ce9d50cU, 0x3d4ce3aabd8a08bfU, 0x3cadc8963d432802U,
  0xbd19a31f3de1a60aU, 0x3d02f9593d81cabcU, 0x3bb75b9f3b85337fU, 0xbd303bfb3c9ae27aU,
  0x3ca348453dde2e76U, 0x3b3a47273d9bd3d6U, 0x3dcc941c3d995901U, 0x3dbd13bf3dcfd43eU,
  0xbb7a527a3db7c739U, 0x3d9f56a9bdee7823U, 0x3e1368893e34ac40U, 0xbb05b673bd091545U,
  0x3d2e2fd03d104ff3U, 0xbca93f263d5f8191U, 0x3d4f980e3d87ab29U, 0x3e00ce3f3b4d02bbU,
  0xbd360425bcaac231U, 0x3dabd4803db5cba7U, 0x3c4000ce3dbc5a36U, 0x3e217c593cb2d4c2U,
  0xbd3bc14c3cb1da94U, 0x3d0c8512be231c20U, 0x3d8eeb003dd15771U, 0x3daedc12bd8b01b7U,
  0xbcd4da913d89fd70U, 0x3bb4f4be3df7429aU, 0x3d81c11b3d88210dU, 0x3da430febd9336c3U,
  0xbd9b1b0ebefb17ddU, 0x3f387ae0bd635baeU, 0x3f45c3f2bf0e40c1U, 0x3d81646f3dfd454cU,
  0xbdbf561a3db9a34aU, 0x3e2529a9bd855507U, 0x3e2936acbe85678dU, 0xbd575a6c3c3a0329U,
  0x3de16046bd1484ddU, 0x3d8c232dbb9802e8U, 0xbd12051b3b223bbcU, 0xbce109b5bacd2899U,
  0x3b86abf6bc6f9f78U, 0xbc844aefbc24322eU, 0x3d2c9127bd4079a4U, 0xbcc29cd4bd2724c6U,
  0x3d3484e73d4cfafeU, 0x3c288d88bd035af0U, 0x3d257851bd577b6bU, 0xbd1b00933dbddae8U,
  0x3d855d093d14d5b1U, 0xbd5f6e6ebcc68520U, 0x3cf7524f3cfb61ddU, 0xbb9ae0a43d054aecU,
  0xbdbc22bcbd27d518U, 0xbcab5434bc172930U, 0x3c7a916fbc006c21U, 0x3d8b0c863d13a96dU,
  0xbda2f868bd48f14bU, 0x3cee6904bd008548U, 0x3d58c2aebd826686U, 0xbc3fdf9ebc521374U,
  0xbd27cc66bcedb910U, 0x3c42fc73bd78da12U, 0x3d2adefc3d2c42beU, 0xbb59cadebd97a9beU,
  0xbd3df672bc2e3dc6U, 0xbcc28263bd5ee3edU, 0xbd153f36bcad533eU, 0x3c68212bbcd6a665U,
  0x3d8198e53c8c0a8bU, 0x3cd8f4d53da39ad6U, 0xbcd03a9fbd6a8e2fU, 0xbd76017a3d048235U,
  0xbccc8c1fbc9d083fU, 0xbdb2e38cbd615fa3U, 0x3d95967b3c11635aU, 0x3cb8bee73d8d6e8fU,
  0xbb87826ebd5f68f4U, 0x3d354c67bd3ad86aU, 0xbd355a5cbb32c690U, 0x3d353b5a3df78c56U,
  0xbd1057183d46d2a8U, 0x3c8faf253d9ccfedU, 0xbd068b783bc0e2e9U, 0xbdbc15503da4c364U,
  0x3d6fdee7bdc1a1e8U, 0xbdd5a3b8bd3418f0U, 0xbda2c36abcb2e39fU, 0x3d734626be083cf4U,
  0xbccbf523bdc33779U, 0x3de071983d067ec1U, 0x3dda91eb3d9c50a3U, 0xbdb3933cbcf7c918U,
  0x3be5d9c7bcab1942U, 0x3d874cf2bd3038bfU, 0xbe3dd591be9673c3U, 0xbd4b2b8f3daafcdbU,
  0x3d58b1333cf45fdaU, 0x3bdc67303e400367U, 0xbd877d673da2a4e5U, 0x3c9c3c133d806f7eU,
  0x3b98973fbd36131cU, 0xbe164c9b3bf1862dU, 0xbeffcbfd3e227076U, 0xbef13e863f11cbdaU,
  0x3f1aca54beb1ba04U, 0x3e667f763e59a740U, 0x3e34661c3e5036c7U, 0x3e0a12b13e49dd59U,
  0xbd070fa8bdcfafd9U, 0xbc71073d3d0a84cbU, 0x3da7dc1e3d281391U, 0x3c4372063ca4f7c6U,
  0x3c359403bca82e26U, 0x3c2773e2bd2c29e9U, 0xbd1717753dea77fcU, 0x3dfd5bea3d96448bU,
  0xbcce9bdf3d490809U, 0x3b57f4743d492b95U, 0x3d0846063d96109aU, 0x3d51ce15bcf353d2U,
  0x3ca0612cbc8d7348U, 0xbd0c780f3d91e8caU, 0x38c004673b22dee9U, 0x3dc4e4443d20166aU,
  0x3dbdab993cae72dcU, 0xbd6feadabd25fb84U, 0x3cb41fbdbca0eda7U, 0x3c996fbc3be8a810U,
  0x3c27a334bcfc2a4cU, 0x3b35353dbc9f6063U, 0xbc640f9a3c208650U, 0x3d997f493cb57941U,
  0xbc7dc3c5bd2dcbe6U, 0x3d3dbe16bd1a55cfU, 0x3d474b1b3c6a7e89U, 0xbd626f963d8207f0U,
  0x3d8e6b74bd2dfd75U, 0x3c925c9abd98bfb7U, 0xbc59e16c3b8799a0U, 0x3bc2a3693d0bd848U,
  0x3db3597f3d1dbe4fU, 0xbd9d9df33dbd7309U, 0xbcb8d266bcc8f310U, 0x3ccd7e32bcf526a2U,
  0xbd4947ac3dab02a3U, 0x3d97efbf3d01c522U, 0xbcefd3a5bc77ec9dU, 0xbd337c4bbd82c66eU,
  0x3b1aa6763d0948b2U, 0x3d82a1303ce7d151U, 0xbcac69d43c6e0933U, 0x3d85299d3dd5e9fcU,
  0x3d6bfd52bd5e7e4aU, 0xbc7d802bbd1a2453U, 0xbd84bdaebd2c541dU, 0x3e15f52e3c9a9ae9U,
  0x3c01f47d3e03f074U, 0xbd39027dba92d63aU, 0xbb489622bd145c2cU, 0xbd6c2b98bd4cd5c3U,
  0xbbd66be83d3c6d58U, 0x3d8cb61b3d1df154U, 0xbda849da3cd95751U, 0x3ca22dda3976366cU,
  0x3dcb38d0bd0650f2U, 0x3d7f16ea3d9d2ee2U, 0x3dce393c3d9ac0a3U, 0x3d85b77fbcbc78f6U,
  0x3c383de5bcc4d4d1U, 0x3d608a7b3e078bd9U, 0x3d44adcebc60e3bbU, 0xbc0ac691bbc67aa6U,
  0x3d189186bdf46ae0U, 0xbd5a26213da8bf3dU, 0x3d79024c3d1be6c8U, 0x3e11892abed659e6U,
  0xbf2344f23d9fa38dU, 0x3ea4be9a3ece44c9U, 0xbf1f9782beba4c82U, 0xbedf422dbe62922cU,
  0xbed66c57be2bc16cU, 0xbf1a7a74beafca4fU, 0xbd3696f9bca152c6U, 0x3ccfe5283db21a96U,
  0xbcc7903dbd382872U, 0xbd628c963c5e15ddU, 0xbbd767963d879755U, 0xbcfdcef8bce8d887U,
  0x3d3739f3bc97531aU, 0x3d488740bcdfcc6fU, 0xbc69f89f3d3f96c2U, 0x3d9d2875bd3552b1U,
  0xbd079f5b3b15fc5dU, 0xbb7b64ecbd12b1b7U, 0x3d26b5993c7df2eeU, 0xbd0f021fbd68e679U,
  0x3c3b3909bd429b50U, 0x3d7be4903a3e919fU, 0x3ce02775bcd86f0eU, 0xbcaa7fc73c80cd27U,
  0x3d6a83613b3991e8U, 0x3d58c791bd405a44U, 0xbd8dc80abb19d6dbU, 0x3d82e05e3bf288edU,
  0xbd1d5bbe3d1308b9U, 0xbdde09e13c2aaf78U, 0x3c004aa0bda35ab2U, 0xbcab0540bdbe0a27U,
  0xbdefdee33d74a1e9U, 0x3d86e8023d2d0a57U, 0x3c5705f6bc4d1439U, 0xbde0be323d3d2f38U,
  0x3be299bbbd3649dbU, 0xbcd536d53c810075U, 0x3d2b3f183ce14674U, 0xbd6972a93d0cce36U,
  0xbd2c5fe7be622581U, 0xbd2de84abc509213U, 0x3d4935b9bcfea811U, 0x3c5dd843bd6b9179U,
  0x3db6b9393df01217U, 0xbd003ba13c2f0d37U, 0x3d7e1810bd59d477U, 0x3d450381bc846079U,
  0x3d4dfc383d37d3b2U, 0x3ced52f23e23adf5U, 0x3dcc6936bd8992f7U, 0xbc1b0383bc9e06e6U,
  0xbccb8c563d3b5ddbU, 0xbd2f0540bc899cdbU, 0x3d9de4ac3b77967dU, 0xbd7c7376bd2338f3U,
  0xbcf8436d3cb4b10eU, 0x3c84645abc615d53U, 0xbd399e383d72fa13U, 0x3daa63cf3d791bdaU,
  0xbd793c85bce67dd3U, 0xbd25ae01bd5f780bU, 0xbdb35eeabe20cb05U, 0x3d80b01ebd7cb27fU,
  0xbcca27dc3cf43c99U, 0x3d7ce4a23d89c978U, 0xbcf54c1bbcf5414dU, 0xbd8a56d6bd2d5e6fU,
  0x3e244ccd3c9e8594U, 0x3a913741bbb68b6cU, 0xbd9139493bff53bfU, 0x3cc080a23cd6c7a0U,
  0xbf6c39d0bd82ca9cU, 0xbf691db03ce8460aU, 0xbed760f33cdd1c8fU, 0x3ed6d1febefd9dc8U,
  0xbf00f922bf28d4abU, 0xbeb92e28bf05f7e8U, 0xbf2e2f7dbf234f2bU, 0x3d5bec4bbed7aef5U,
  0xbd94adefbb8be149U, 0xbc0265b13df9b8c1U, 0x3d179726bd91d48bU, 0xbdf613b93d876b4dU,
  0xbd46fef03d6da61aU, 0x3bdd566abbd00b3bU, 0xbd6dc602bdd03666U, 0xbdc97df9bcd814c1U,
  0x3df32aefbb82cb58U, 0xbce49085bc22eba0U, 0xbd0a4bdc3de5353bU, 0x3dbc19e5bd9ce94cU,
  0xbd0d78793d036b3dU, 0x3d92502e3d15eb85U, 0x3d6159abbd7976c6U, 0xbc307af53c848c28U,
  0xbd8bd7bdbd120992U, 0x3d945c05bd55480aU, 0xbd6a24debd9ef377U, 0xbd7911e63cc8a5e2U,
  0xbcc313e2bc8ea3d0U, 0xbdd4c903bd7dd693U, 0xbd36f17dbd5f5d70U, 0x3caaafafbdd369d3U,
  0x3ac5bf09bd3b686dU, 0xbdb8b37f3c36b243U, 0x3d1b6e7dbdb9fbd9U, 0xbcde270f3c07188eU,
  0x3cbe072f3c0c0bbbU, 0x3dbee77fbe0aef28U, 0xbd419235bdd3363fU, 0xbd5d81663d851f77U,
  0x3dba5f80bd91fc30U, 0xbcd128bb3cae52a5U, 0x3c5d5cb83d30673dU, 0x3d19865bbd318d71U,
  0xbdc803dc3c840cfeU, 0xbd1ba8aa3da1aed9U, 0xbd19147d3d643609U, 0xbc3781fcbd1b17eaU,
  0xbc5d62e23cbcc302U, 0x3d8d484fbd21dc85U, 0xbd2595653bf2960eU, 0xbcdd35b93df08d7cU,
  0xbcf707e0bd76b0b9U, 0x3c97426a3dbb8a41U, 0x3cdcf8d73b279923U, 0xbd714be0bc1ad3acU,
  0xbbf8b534bc0ce3a1U, 0xbe062b93bd035fbbU, 0xbcdccf103cd7c0e1U, 0xbe087355be0bfcebU,
  0xbdbe17193b30eeb0U, 0x3d52169fbe040382U, 0xbda5a4fbbd11b8e1U, 0x3d9bacddbc811471U,
  0x3da667d13d09928dU, 0xbd68282dbe04dd03U, 0xbddfe6323db1c31aU, 0x3d48f666bc89f71dU,
  0xbd68ae2cbd888181U, 0xbd94108d3d84291eU, 0x3dce8a53bd446556U, 0x3c45589c3c9ea552U,
  0x3d9607a6bd089668U, 0xbd782cc73da64375U, 0x3cf7e018beeae895U, 0xbe379bcd3e44031aU,
  0xbe1e7569beb3ce0bU, 0x3e33352a3ccf4b00U, 0x3e8e68713e06b6fbU, 0x3de81a3f3df8539bU,
  0x3de6fd1f3dd0fc94U, 0xbd89f3eb3df155c2U, 0x3dfbe631bd9e2c56U, 0xbce58159b97ff065U,
  0xbd650eb83d13695aU, 0x3d6f4066bd07551dU, 0xbcc79ab1bdabbca7U, 0xbae2e0b43d23153bU,
  0x3d185abbbc2efcb0U, 0xbc455a4bbd1bbb1dU, 0xbd42cec53e33c272U, 0x3e20c63cbd80451bU,
  0xbd9a0680bdf5a9b7U, 0xbe1eb0ed3d9442a5U, 0x3df6121fbdbcefecU, 0xbd8b2692bd2ab98eU,
  0xbcc03c6b3dcd7048U, 0x3e08747ebe08a348U, 0xbd55a7b2bcfc18c0U, 0xbe12b5e83d8b34f6U,
  0x3dee790fbda5aa35U, 0xbdc3f6853c00d08eU, 0xbe301d723da0c428U, 0x3d084cd7bd9173bcU,
  0xbd84ed57be5f805aU, 0xbdc9b8613dd9105aU, 0xbbca647dbdaaa5e7U, 0xbd228cf7be007bafU,
  0xbdaa47813c2e3b49U, 0x3c7453e1bdca8627U, 0xbd55ba6dbe5492f3U, 0xbd4d6cb03d172a10U,
  0x3c3f8a39be1a0af8U, 0x3d4ec47ebe08476dU, 0x3cd7378fbddaccf6U, 0xbcfaae103e50c67bU,
  0xbd85e182bdbdfaefU, 0xbd506a1fbd4aafb3U, 0xbc968357bd06cab5U, 0xbd2b6848bde10b5fU,
  0xbd6ade813ae67a9bU, 0xbc5119433d5dbebeU, 0xbdf70321bd3c1aaeU, 0xbd18538b3cbce0afU,
  0xbd67992abd88f009U, 0x3d8408063eb3508fU, 0xbd85670a3be1099aU, 0x3d1207cfbd4ba349U,
  0xbe035d86bd1a98aaU, 0x3b7b7bd63ce78e57U, 0x3d945c7ebda683beU, 0xbde81603bbf0257bU,
  0x3ce406f33d92364dU, 0xbd82d629bde2d14fU, 0xbd4e54e43b0fb3f9U, 0x3e8ecfdc3cd6ec6cU,
  0x3d8303b33db1f2a5U, 0xbe01a61cbcd104d8U, 0xbd5040a1bbdd7c22U, 0x3d6eb633bd24b226U,
  0xbd041f593d8ba075U, 0xbd849bb7bb04cbceU, 0x3c849103bde51d63U, 0xbb8473d83e0ce4deU,
  0xb98e3c433ce0b4acU, 0xbc972c323dbc2f33U, 0x3dc97e423d2ed90aU, 0x3f046e7fbcc8d780U,
  0x3df721a0bf0b016eU, 0x3f2fdafe3e4d8320U, 0x3eea462abee04781U, 0x3e968691be10e4a0U,
  0xbdd91d21bc4162adU, 0x3d961e5bbedabbe4U, 0xbc086326be5efe2fU, 0x3d55c026bcec4e04U,
  0xbd85ee273dc4fa0dU, 0x3b881327bd9159ddU, 0x3c4fdca63dcdf44fU, 0x3bb700f53cacfa3cU,
  0xbc659024bbd08d92U, 0x3d3d02c2bb7fbda2U, 0x3d08ffa9bca3b184U, 0x3d51c24f3cfbecabU,
  0xbc1c34b93d358ab4U, 0xbbaacf5f3d941c79U, 0xbbb962893d67ba01U, 0xbc40c962bc577317U,
  0x3dae7ad13d391cfdU, 0x3bc9ebc6bc10e8ccU, 0x3c850be23da531dcU, 0x3c9eb9133d713ccbU,
  0xb93e743d3cade580U, 0x3d380bedbbaac011U, 0xbbc688fc3cc0d69fU, 0xbb92dbe0bc88c840U,
  0x3db4fbad3d214fdfU, 0x3c825abebd18e899U, 0xbbc983d4bbbe1fefU, 0xbd0a501e3d7fb078U,
  0xbcd262263dc79f23U, 0x3c8288183b162c70U, 0xbcbd02673d1812c6U, 0xbd90187ab9cbf4a3U,
  0x3cba7eec3d8ed21eU, 0xbcea0060bdb76ab8U, 0xbd84560fbd9424eeU, 0xbb7c2b9b3cabb946U,
  0x3d53a1f0bd654f5dU, 0x3db7e106bd41e11fU, 0x3d0dc8643d9e61a6U, 0xbd05ae0f3daff047U,
  0x3cfa1084bc9d8e7aU, 0x3ccb402dbd9e8e52U, 0x3e0d6ebf3dba4511U, 0x3a8f1d963dea8726U,
  0xbc8ee2123ddfbf73U, 0xbd2e57fa3ca64e4dU, 0x3c5a58953c590b06U, 0x3d9ac3adbd53ec85U,
  0xbdc7d1693dad0a34U, 0x3cef7fae3d654a85U, 0xbcdb6fdb3c80e595U, 0xbb76b4c4bdd30671U,
  0x3d9f925a3db29121U, 0x3db41a3f3c5066d9U, 0xbc81bfa1bce2806eU, 0xbd30d125bd8c5f5fU,
  0x3d8f2aa93da5eff3U, 0xbd813bcb3c64b2ebU, 0x3dc09e073bd8fc6fU, 0x3d8fc83b3ca7ba29U,
  0x3b32a8943b62cae6U, 0x3c7be7a9bbf8f36dU, 0x3d98ce6fbd44ec4cU, 0xbe1be8d3bcb0c72bU,
  0xbe0b56283dc44c8bU, 0xbce2b965be0861d4U, 0xbd52cf7bbd106daeU, 0x3de06a52bced3844U,
  0x3d458cd03daf2a81U, 0x3ee4daec3ef267c3U, 0x3ee3dbc43f15a7cdU, 0xbefa230d3f3b6345U,
  0xbdad7221bf05d001U, 0xbde1a96ebe46f1e6U, 0xbe9d48c5be7163a7U, 0xbe1d5eba3c33c9e4U,
  0xbc8e53073c93a494U, 0xbd2c245ebc0450b7U, 0xbc76c06abd6c2be3U, 0x3d5fe747bd215c1cU,
  0x3bd03563bd05d25bU, 0x3d56aed03d2cfd9fU, 0xbd12bb983ca03b0aU, 0x3c9e857b3bfa9272U,
  0xbcfb89b9bca57e93U, 0x3d0142b5bd84beb6U, 0xbcfc636fbd0993caU, 0x3d5e7844bc4e44bdU,
  0x3d92e8753ba050d4U, 0x3d7f61463c36f619U, 0xbd3d51443d4336d9U, 0x3df2c2b43cfa0cbdU,
  0x3db4bbee3c743365U, 0x3d8c26dd3d6de182U, 0x3c86e35f3c88d42bU, 0xbc25d2533c66aca8U,
  0x3d6e498cbcda9c02U, 0xbd51b2eebd8dc1c1U, 0x3d29cab73ba1ad24U, 0x395db13c3be389f1U,
  0x3d67877a3d19c883U, 0xbcb30e8c3d60ec2bU, 0xbd22884a3d86c6caU, 0xbd3b7ea0bca94e4bU,
  0xbd536e6d3d119e24U, 0xbd50449bbccb2562U, 0x3d275f0f3c7970f6U, 0xbca6f2863c002d79U,
  0xbcb041e0bd2605f9U, 0x3d3651063d65241aU, 0xbd052da73c4950a9U, 0xbb4c879b3d0eac60U,
  0xbcabf4acbd84a390U, 0x3d9b9fe8bce2d157U, 0x3cb53e3ebc97126aU, 0x3da57b57bc721389U,
  0xbd0f2e283d3051ceU, 0x3d0940933d908b8dU, 0xbdb3872dbd45d856U, 0x3dd79408bdc31b1cU,
  0x3d930b69bcd7934dU, 0x3d87a768bd0deb27U, 0xbd2a40fb3be31ae6U, 0xbd643f83bd92ade3U,
  0xbcfabf493ccea42aU, 0xbd86d6dcbdabb206U, 0x3c4fbb59bd852f1fU, 0xbd4cf067bcfc1af0U,
  0x3d0285f63d98bf8aU, 0x3d23d7e83d103760U, 0xbbad0e0a3de8246fU, 0xbd3afb243cc329ecU,
  0x3ca00b4a3d707cc6U, 0x3be9e4f2bd33ccafU, 0xbcb0da4dbcd95d03U, 0xbd57ea71bd5a3109U,
  0xbe1accbb3dc8bab8U, 0xbd80493dbe29f15cU, 0x3e0a56ca3d8f72ebU, 0x3df0ebaf3d201e4dU,
  0xbd013bdd3d7aa79eU, 0x3d451ba63d88c050U, 0x3eff61633d3bdf61U, 0xbe3878dabd45ecffU,
  0xbe73243b3f13c78bU, 0x3f2826cdbed7e2f2U, 0xbd21ebeabe2812e4U, 0xbdacfab13e088f01U,
  0x3dfa8be43ae53e26U, 0xbbe91954bd27f65eU, 0xbbcee6e13d6afc29U, 0x3c9bc4abbc2efe9bU,
  0x3d82b6cb3d168986U, 0x3e107f6f3b959453U, 0x3dfc9de1bc9e5c29U, 0x3b940e473dfefaffU,
  0x3dade40a3d841329U, 0x3d1866ac3d142d42U, 0xbdca081e3d48eba2U, 0x3c61fd6dbca54413U,
  0x3d021446bd00ee71U, 0x3cc5f5983d2fd1e8U, 0x3da6ab3d3d16ac15U, 0xbbd883f3bd0f7c9cU,
  0xbcb965043d93e924U, 0x3dceb2af3d8759d8U, 0x3d9ff3763d861c8cU, 0xbd67f65d3d8a2e7fU,
  0x3d9686bdbc11285eU, 0x3cc21827bd847b8aU, 0x3d156668bd40dba1U, 0x3d1689b93e0f8aa9U,
  0x3d479e0bbd829512U, 0xbce9c416bd7bcbe3U, 0x3df432373d15565cU, 0x3e1bac2fbcc89598U,
  0xbc9c619d3d11b861U, 0x3da3682b3e150e1cU, 0x3ca1c53ebd74ff91U, 0xbbed1d9b3de58ad4U,
  0xbc218a093c7831ceU, 0x3cc7dced3b7a3e94U, 0x3dc14c1a3d2e1278U, 0xbd9fab58bd603f68U,
  0x3ba5b7603da07358U, 0x3c03d1613d98e955U, 0x3db34fde3d881712U, 0x3dbd85ce3d14c8d3U,
  0xbd023110bc12d069U, 0x3d8f25db3bc9d3fdU, 0x3d542c763b5a684eU, 0x3cc06caf3d74202fU,
  0x3dace17e3d0c43f4U, 0xbd2d5bf73d4b826aU, 0x3dd89855bcf86143U, 0xbcdbb3dabde6e1d3U,
  0x3d09f9b93cac02c4U, 0xbcb6d86b3ce8c75aU, 0xbd3092943d3a2445U, 0x3e0035473c0c771fU,
  0x3b5404533e3a5a6cU, 0x3d23623f3d49d902U, 0x3d4ae297bd021e6bU, 0xbb0b78163e3133aeU,
  0xbe5fe570be017aedU, 0xbded70633cc711bbU, 0xba519aa4bd3b2e87U, 0x3dfb6e583dbf1ebaU,
  0x3e5d762c3d457262U, 0x3dbb24b83e24810aU, 0x3db19cdbbde2362aU, 0x3b244f55bd96600dU,
  0xbd51138d3c8f4905U, 0x3b2d5deebc8bd485U, 0xbc385c353cc3f7c1U, 0xbdb9246d3db91e80U,
  0xbf0cc0193f23bcf1U, 0x3e867dd7bf34103cU, 0xbf3ad51f3ef475bdU, 0xbec127a63e5e5b3eU,
  0xbd33140bbf051527U, 0xbea1c076be69c631U, 0xbe06ea28beea6a29U, 0xbca2d318bcbefbd0U,
  0xbd0a711e3c056d17U, 0x3cd9244ebc81dc0cU, 0xbd3e8b9fbb297884U, 0x3be1c62b3d3ce85dU,
  0x3d3fef803ca0e3fcU, 0x3c3dd6983cf50d46U, 0x3c8ee8853d9cbe21U, 0x3d58b9873d2aebb1U,
  0xbc7bf5493d253311U, 0x3bc18b113dbd06c6U, 0x3c9dd665bc42c24eU, 0x3d211909bc373e60U,
  0xbd769d18bc9959beU, 0xbd9c771abd8e7546U, 0xbcdfb6b53d5ac878U, 0x3d157bd3bcd6e9ebU,
  0x3d34c3f03ccf0eb6U, 0x3d9621be3d6ece72U, 0x3db06816bbe58d6bU, 0x3d5a0d2e3d674ea3U,
  0xbd17ef7d3d0390fbU, 0xbc194c603cbfc15aU, 0xbdf8d0a13cbef632U, 0x3c26e598bc40b907U,
  0xbd5b6425bd532e6bU, 0x3da9ad60bc82e9dcU, 0x3d226b1ebd274040U, 0xbc9e155e3d869faaU,
  0xbdb7f9ed3d7f4e69U, 0xbbc53bf23c8e5ab5U, 0x3cd3bc2f3c3fbc1cU, 0xbd777b18bbc785cbU,
  0x3dae09d33dc62b74U, 0xbc56bc563be4d69bU, 0xbd3bf641bde0186eU, 0xbd679b593da5a93cU,
  0x3c4dd4f83b8527b2U, 0x3b858d453ae57767U, 0x3cff65fe3ceed411U, 0x3d16e3b7bd5466dbU,
  0x3c5f2c8d3c165c8cU, 0xbd2cd33fbbe78ab1U, 0x3c3c39e3bdad2148U, 0x3d4556e9bd30f907U,
  0x3d4eed6f3d3f93e6U, 0x3da83a413d2aed1fU, 0xbd2a8e8cbc1d3576U, 0xbd540da63d506c17U,
  0x3bce8aabbcfe8b10U, 0x3c5cfe51bc20c765U, 0x3c698663bc9360dfU, 0xbcaf87b93e00da88U,
  0xbd63371fbdd5f17eU, 0xbdabfcc73dbbf886U, 0x3b8968443c82d818U, 0xbd7fdfacbcab1320U,
  0xbd57ae913d1bc0cfU, 0x3c0ad2f6bcb9cc20U, 0x3af2b181bd313e29U, 0x3c0df4aebc92d87cU,
  0x3bb53cc1bbae6e22U, 0xbe089087be254e15U, 0x3c818e183d5f26f3U, 0xbc8edcf5bc805bfbU,
  0x3b895205bd18f437U, 0x3f1e04e53d305628U, 0x3f529153bf44041bU, 0x3f2142473ea168e6U,
  0xbf1e253dbcfa441cU, 0x3e8c1be33f104b08U, 0x3e96e8933eb74554U, 0x3e5139ce3dc0f287U,
  0x3cf358393e0e3486U, 0x3c851db6bcc9b551U, 0x3d40e5cc3dc1a8ffU, 0x3c70491d3c2b1e56U,
  0xbd7b2b91bd4a9537U, 0x3dc560773d9d1478U, 0x3b58fe9ebb19ed1bU, 0xbd48a6bdbd8977e0U,
  0xbb0904053d90ec79U, 0x3cc96b6dbc202c09U, 0xbd5f87aebdb53081U, 0xbd7289233cbb921cU,
  0x3c993f983c9e7450U, 0xbd989448bd31b271U, 0xbcdd0e8c3d36457aU, 0xbc355093bda253f7U,
  0xbccd286d3d05590aU, 0xbc43242c3d508796U, 0xbc82bf723be980f4U, 0x3c870a213ac2af95U,
  0xbbc011ad3d38b550U, 0x3b614352bd79033eU, 0x3c517af9bd461642U, 0xbce681253ccb95daU,
  0xbc234af0bd98cc09U, 0xbd96b6103d73e0faU, 0xbcefeabe3d04ea59U, 0x3dbf046fbd823408U,
  0x3cb2c44d3d1c603fU, 0xbce6064e3d85cfceU, 0xba322ebc3c806419U, 0xbe030624bd9b3900U,
  0xbdabd373bd741c50U, 0xbc0677313cb35248U, 0xbd50a4a33d25be73U, 0x3d9e5a9d3d3a13abU,
  0x3db7457abd1d949cU, 0x3c45a11b3cf5a4e1U, 0x3ca5c1363ce8fb27U, 0xbc50ba153d481f35U,
  0x3caa8a063d783ffbU, 0xbb66271f3c775ba7U, 0xbda6c0ee3ca9ec71U, 0xbda52f16be0bbdbaU,
  0xbcd6a24d3c93903fU, 0xbd2863a6bcad3576U, 0xbd091f3d3d2dc268U, 0xbd874bcdbcceb268U,
  0x3d72a546bcd467c7U, 0x3d64d481ba301322U, 0x3d57128f3dad322dU, 0x3d25fdb93cabc133U,
  0xbb4997ddbd632dbeU, 0x3d9242cbbe114879U, 0x3ac9721c3d939aeaU, 0xbb9345d2bd78d33cU,
  0xbdf93cf23d8790acU, 0x3d928827bd1ecf61U, 0xbd7a6d29bdebae27U, 0xbe0108173d6794a8U,
  0x3d4896b8bd3af9cbU, 0x3d790b153cfb634bU, 0xbd95366bbd193b7bU, 0xbd402ea7bc0daaeeU,
  0x3d7ba7533cf61ca5U, 0xbd1588543b6d0e8aU, 0x3d3137983d9aafc5U, 0xbe93bb093f1a79faU,
  0xbf5f246dbf356c57U, 0x3e35d9c23e4ab7e5U, 0x3d39f19fbec3f8d8U, 0x3ee639fc3e8b6eb4U,
  0x3de70d413f0b6066U, 0x3eb96ceb3e934296U, 0x3cdd609cbd974015U, 0x3ca1ca6e3cbf5147U,
  0x3d8a045f3a784186U, 0x3cd973103cd2e2b7U, 0xbba8b4063d31d6bbU, 0x3d851b413cb5a810U,
  0xbb199023bd1593b0U, 0x3d5e45c93c22bb76U, 0x3d8f02e83dd6bc67U, 0x3d3e1244bcd48451U,
  0x38f909a3bd38fde3U, 0xbbd9fa813d6e3037U, 0xbcee0164bcc70a39U, 0x3dab3e67bd90bffeU,
  0x3cecdb7abc845145U, 0xbd1bea2c3d82a322U, 0x3d55a7cb3ce035d5U, 0x3c89d69e3d94b475U,
  0x3db578633d46a998U, 0xbdcdc054bbc23008U, 0x3c6a9cfcbb99c7c6U, 0x3d0ec2d6bd6cf0dfU,
  0xbd5ac9863c924424U, 0xbb3f636c3c3d375bU, 0xbc4e086bbd067e64U, 0x3d5357d83c1392c9U,
  0x3deee158bd9cd050U, 0x3c3fa8183d89e5cfU, 0xbd3fade63bc30240U, 0x3ca9324c3e01766eU,
  0xbbd0aa473d489f9cU, 0x3d9f98023dbf7b3cU, 0x3e06dacc3d41bb3aU, 0xbd57c626bda9301cU,
  0x3b5083b63da74675U, 0x3ccc50513d070cbbU, 0xbc1e40cb3c370ad7U, 0xbcc2774e3c725ef2U,
  0x3947ada83cf35f5eU, 0xbcbc29b73cfc3837U, 0x3ce56b3d3cf6de85U, 0xbd1d080bbd51c32cU,
  0x3ddec432bcbdf6a5U, 0xbba026dcbbb39d12U, 0xbd0afc113d37b577U, 0x3de5228d3ddf9945U,
  0xbb9f7f573ba62d4aU, 0x3c2a7fc93e12a23aU, 0x3ca9162a3ceafb56U, 0x3c400be9bd5da7f7U,
  0x3c36b1953dee4ea7U, 0xbd42b0f8bd8284e6U, 0xbd2bcc7a3d1ea81aU, 0x3da56e9b3d340ca8U,
  0xbce0503e3d0c6f1aU, 0x3dcde366bd002604U, 0xbe1420fbbe027765U, 0x3d3b99993b66d098U,
  0x3a0e34babd8d72feU, 0xbd573045bc297915U, 0x3e068299bc3e5311U, 0x3d0409963d2cc4c8U,
  0x3db768e93e79f74dU, 0xbce8b366bce9a57eU, 0x3d11ec5cbd290d2fU, 0xbd78e5763aabb10dU,
  0x3f123d0fbc624c48U, 0xbf2ac2a8bf03d8b0U, 0xbea687b5befdff7aU, 0x3f02cde73ec5a867U,
  0xbe8f2779beb12022U, 0xbe803accbc9e5e3fU, 0xbe09a30fbef7383fU, 0x3dbfe95ebec68c7dU,
  0xbd1970773c9ce210U, 0xbd6dd2af3dcea814U, 0x3e02f86c3da529a8U, 0x3d0956b33cbe5dccU,
  0x3ce96debbc7c0b8dU, 0x3dd556bf3d512e8dU, 0x3d073d0d3c8d508dU, 0x3da057273d24eb1cU,
  0x3e0355313d612245U, 0x3d33dd193d913ff9U, 0xbd4c45bcbcc1d3e0U, 0x3d0123703d2cec72U,
  0x3c31561fbdb7037fU, 0xbb6dfc8fbcfefd0dU, 0x3cedbaef3be62d6aU, 0xbd6e0a27bd49c4b9U,
  0xbcbadb37bc116ef3U, 0x3d0db0aabd6b0b50U, 0xbd7bf65c3bd07be2U, 0x3cf93cad3e173838U,
  0xbc77a1fabd04a35eU, 0xbd9c2b53bc286779U, 0xbd4e62c3bce38cd6U, 0x3c93ca043d9bf35cU,
  0xbdd99cc4bc5afa44U, 0xbb9295c33d0e95f9U, 0x3d2549073ae8e337U, 0x3cc3a7b5bc2ef6c5U,
  0x3cdbf36e3dbc67caU, 0x3d3dcba4bd32e4ddU, 0xbdec25e73c3f9f5bU, 0xbccb5c083da0b195U,
  0x3c901c56bc639b8bU, 0x3d04105ebd33000aU, 0x3dbc76623c924ee7U, 0x3be5bd02bd8f6ba7U,
  0x3be774dc3d019b10U, 0x3bac6c9d3cbc04a9U, 0x3da2e5ba3dc6c80eU, 0x3db278953d5f8e34U,
  0x3db9e51d3d648833U, 0xbd686210bd380af0U, 0xbc89c9dcbcadddf2U, 0xbb453997bc9db363U,
  0xbcee234cbbddc009U, 0xbd9e25a9bc720226U, 0xbcfead49bd1b9bfaU, 0x3d4b4d193cbceb53U,
  0xbd5c73d73bb0bab4U, 0x3d90bcc4bb91f888U, 0xb9bac37d3c7d904eU, 0xbd0289ce3ca915dbU,
  0x3df48e833d5f2f46U, 0xbdaa480e3d7d7290U, 0xbcb8ef973d9bfbe3U, 0xbddd2fe73dc250e0U,
  0xbd10cda0bddb2608U, 0xbd92eaf03d991fc5U, 0xbc4b635c3d1563a3U, 0x3c90e4a53cbb1271U,
  0xbca9496ebcedb85eU, 0xbe481ecbbc248d0eU, 0xbcfbe746be3a3c9aU, 0x3dc2e8cebdfb574eU,
  0xbd9c50bb3cf557d8U, 0x3ba6830e3ccaf9a1U, 0x3f37730a3ef33756U, 0x3e4d9e1cbebe7ec7U,
  0xbf0fad063d56f183U, 0xbe1d6acdbf1d59e9U, 0x3959ab1dbe21e975U, 0xbe662b78be3cee2eU,
  0x3da726843e401cd0U, 0x3d1cf8563d47fe0bU, 0xbcb6eb1f3d95a356U, 0xbcf267e33b31e7cbU,
  0x3dc00aa3bb9ac050U, 0xbd91d15e3dc0e11fU, 0x3c2aa2be3d149cabU, 0xbcb582d5bd6ed105U,
  0x3d89a32c3ce8c95cU, 0xbd8366c2bb130180U, 0x3d709b04bd9a2408U, 0x3df28ea8bb4d73d7U,
  0xbd99fdbfbd267b71U, 0xbda82a66bd141ccfU, 0x3d964965bd4d7097U, 0xbdb3c9c93b9e0f9fU,
  0xbd966511bd504839U, 0x3d836cce3a79e6b7U, 0x3c7554bcbaf8349fU, 0xbd0b87553a0237deU,
  0x3dc4ebb4bd8a9d65U, 0x3d801e353dca3715U, 0xbcbd2489bc981127U, 0xbd8568a6bdb77975U,
  0xbd6a8bbb3cf922d8U, 0x3db816f13dab7374U, 0x3daf02e03d9c1495U, 0xbd8ac4083d43c7bcU,
  0xbdde189cbbc1749fU, 0x3df42fb4bd197c4fU, 0xbddac301bdc52a3fU, 0x3cf2e507bd0305cdU,
  0xbcadb8793bf3576dU, 0xbd3295113cc9fc8cU, 0xbd3d37aabdb12a77U, 0x3d5f51b83b8e99dbU,
  0x3d993a043dc2ebc2U, 0xbdb4312d3cebfbf3U, 0x3c4554b4bdf51386U, 0xbcd0b35ebe09cf76U,
  0x3d5be0243dd0f34fU, 0x3d5254243d8f015eU, 0xbd93627c3c3814b4U, 0x3d7d10e23c018084U,
  0xbd10d15fbb8cf5b2U, 0xbd6f6576bcda944fU, 0x3d6f43c23cbedb84U, 0xbc91587dbd098339U,
  0xbb38661e3d17a2d8U, 0xbd18626539bdfdbeU, 0x3d680cf8bdadb653U, 0xbd58abec3caa7f86U,
  0x3d8d68983d298211U, 0x3ddf4d2fbc7539f9U, 0xbc30ff64bdeddefcU, 0xbd8e83cfbde8493dU,
  0x3dcf590d3d7150e8U, 0x3e0de7883da683e1U, 0x3d67ebc4bc17e9f8U, 0x3cf5c8353d1c45b7U,
  0xbe18e124be352983U, 0x3cb0dff73d6fd47fU, 0x3d126292bd167ba0U, 0x3d78432b3dd51d8fU,
  0xbdac4dbb3ce83ae7U, 0xbc2fc742bc2e978eU, 0xbd389d393da84aa2U, 0xbf633aa93d25cceaU,
  0x3e3ec8493eb6b8bfU, 0xbee83cd63e4ed96fU, 0x3e859c2ebc15bd99U, 0xbe9755ea3c968a96U,
  0xbe8d3461bef7cb35U, 0xbf084c39bea73a1bU, 0x3d2c8f4bbe96e8c7U, 0xbbf91f9b3c520b34U,
  0xbd5c5ad4bccd128dU, 0xbd322ab8bce4cee2U, 0x3c0974afbc633f39U, 0xbd2c35e43d5dfcf5U,
  0x3b074ad7bd5032e1U, 0x3d1a7fc2bc7a8cf8U, 0x3c91188d3d22b065U, 0x3cd009673cb9871eU,
  0xbc60b36dbcf05393U, 0x3b4209fb3d23d7f6U, 0xbd59ac5dbcb8c8e2U, 0xbd802cf2bd7a2311U,
  0xbbceb3ed3dab54f4U, 0xbcea2ca0bce0898eU, 0xbd1e9df6bd7f5f93U, 0x3c17ee193ca58cd8U,
  0x3cafd8873d061ddfU, 0x3bd58ebbbc1f3ba4U, 0x3d6ccb1f3db4eccbU, 0x3d984f8e3bd94887U,
  0xbd0d27bc3c8c85deU, 0xbc81a46e3d4d4078U, 0x3b9b8eb9bcd12291U, 0xbd9b21263c31486bU,
  0xbce9192a3ccc9a18U, 0xbb99fd893c63d199U, 0xbd4f7d39bdc4c1a7U, 0x3d5976c03d40182fU,
  0x3ce2836b3dbbeabdU, 0xbdbfdcc1bc923beaU, 0x3b89777f3d17f45aU, 0xbce7ec40bd66c58bU,
  0xbd9390d6bd2a205aU, 0xbd1bdeb43bb5f8bcU, 0xbd280bf1bda8d93eU, 0xbd8954cdbd76bb40U,
  0xbda0bfa03d0a141fU, 0xbd398d47bd77a27aU, 0xbd74676cbcb4bb18U, 0x3c5abc7e3d3a7ea2U,
  0x3db25599bc839bf9U, 0x3cd0a8933d0ebd6bU, 0xbd36658e3d310234U, 0xbc99f6363ccbae6dU,
  0xbcf5fe1dbc56e060U, 0xbc29e5f8bced57c9U, 0xbbb4a39f3c5618edU, 0xbcf45a23bd3a0204U,
  0xbdb46532bd371068U, 0x3acebffdbd44125eU, 0x3d0988503c050ab3U, 0xbe02912abc8e5b27U,
  0x3dfb3fcbbe156de1U, 0xbc98be2cbd3c8a3fU, 0xbdb996be3da47ae7U, 0x3d0f6dbbbd81df13U,
  0x3ce0e783bcb57c1dU, 0xbe6c7b5f3d5639e9U, 0xbd31fffebe1ed1f0U, 0xbda986d8bd80175eU,
  0xbde84d40bd38eedcU, 0x3ab72ef4bde55a86U, 0xbceceae93db077ceU, 0x3da622323c0b4ebdU,
  0x3be53dfcbd2d27b0U, 0xbf1fa626bf10854aU, 0x3f41a909bf245c30U, 0x3ec75818bf1f975cU,
  0x3e735584be75dfbaU, 0x3eacafe93e69e442U, 0x3ec24f8a3ed8605cU, 0x3ece18cdbdade0bfU,
  0x3cfc6d973cdb8942U, 0x3cda4bec3d88d0f4U, 0x3da2a2cf3d963f9eU, 0x3cfe4620bc313836U,
  0x3d02e1913a3b6e9bU, 0x3d8a32513d1bf159U, 0x3db4550f3cc0957dU, 0x3d12fdc73d28cee2U,
  0x3dad78733dc01a1cU, 0x3cf09a21bd267c63U, 0xbd24d1f2bd17dc07U, 0x3c0963243d44f329U,
  0xbc995511bd0c45a8U, 0x3d4be77a3d1505b3U, 0x3cae4b713d3ef34fU, 0xbd3b87c03d2856e3U,
  0x3d74a4603bcc7ec0U, 0x3c6029003d939577U, 0x3ca452203c550eaeU, 0x3ce009f4bd4dfab7U,
  0xbcc117223cb8de9dU, 0x3bc620aabd43a643U, 0x3d7ab794bce3a73eU, 0x3ddc95533bd8e3d0U,
  0x3de62b2c3cc2f51bU, 0x3d67b9953cb99f79U, 0x3dda1cf53c3cccf4U, 0x3d941c0bbd83ff43U,
  0xbd21401bbd9c118eU, 0xbc0e6b0e3d48c39bU, 0x3d7c524cbd6405c8U, 0xbd629a51bd7e8d40U,
  0xbd7ff68f3cf48d11U, 0xbd3ccca2bd2589beU, 0x3c18a4123c65f2bfU, 0x3d9109d03d8ba5cfU,
  0x3d92b703bd240c16U, 0xbcd6de7c3dd32346U, 0xbd1b582f3d839eeeU, 0x3cc76a1e3c9008a3U,
  0xbc1c78febd6683bbU, 0x3cc298f53dbc78daU, 0xbc772cdbbd2705edU, 0xbd02ea5bbd2d64c4U,
  0x3cc6383ebdac7b76U, 0x3da1c4fdbd8424acU, 0x3c841f823da5894eU, 0x3e2d7aa43db51dfcU,
  0xbcbbd33bbd332f5dU, 0xbda1d840bdd7651fU, 0x3d09f7173d2d7571U, 0x3d85738b3c82b81fU,
  0x3b8818293d2e6a89U, 0x3e2ac7e53e19caa3U, 0xbbc29e2dbdac8b01U, 0x3c0446b6bb7d02c6U,
  0x3af8f8923d9bbf31U, 0xbd4519f53d3070f3U, 0xbd9dc82fbdbbaca7U, 0x3e1ea7723d5df019U,
  0xbdab88d33cf62e61U, 0xbd13245dbd842349U, 0x3d260d513e1be2b6U, 0xb9515f69bdbf2cd4U,
  0xbc94abea3da5db1cU, 0xbd2a6f86bda79beeU, 0x3f01b0643c13be86U, 0xbe9fcdbf3f1eeedeU,
  0x3ea89307bf21f7dfU, 0xbf0e9da5bf085c37U, 0xbebd21dfbecfb954U, 0xbd9876b7bee645fbU,
  0xbec4c134bee63a75U, 0x3d85ca6cbf3c1fc8U, 0x3c9e186bbd95c98cU, 0xbde12e4b3d961685U,
  0x3e39c6ffbd4abfecU, 0xbc96dbf33da5f151U, 0x3b39325c3d4b242cU, 0x3df28541bd9417eeU,
  0xbccbbf433c1d0d39U, 0xbdfa35b03deead91U, 0x3cffe12ebd9efb13U, 0xbba08f553d810f7bU,
  0xbd72af933d2cae4eU, 0x3d6cfafa3beb2d07U, 0x3cf0fdc5bd09e0deU, 0xbcc984c53dc7e906U,
  0x3d568e103d4d0791U, 0xbc147d093c328e5bU, 0xbd9c7119bd114063U, 0x3e21b57e3c1a02bbU,
  0x3d4aa680bdf41988U, 0x3c321c043d753632U, 0x3d8f931ebc657dc9U, 0x3d53bca1bc3a7822U,
  0xbdffe5db3ddb1964U, 0x3b8f24383cead8d8U, 0x3d83d8afbc1eec24U, 0x3d6170413db223bcU,
  0x3cf05a1c3b855ed1U, 0x3bc8a7ecbd3a3053U, 0xbdeabbc53d886aa9U, 0x3d84d0913d0bc73aU,
  0x3bb3aba23df84393U, 0x3ca126a63d2f6997U, 0x3a8555a8bd449af0U, 0x3e5ad66f3d8704aeU,
  0x3da624d5bd1d7684U, 0x3dd4b6893da1b6d1U, 0xbc5aa1223ca5da5cU, 0x3cd07795bcf64e29U,
  0x3ce0ae473d394882U, 0x3de8d2da3dd869b0U, 0x3d1896cb3d5c75beU, 0x3db227d5bd980925U,
  0xbd16ce46bdac72c8U, 0x3dd9c072bd116f8fU, 0xbd0d51d33d0180b4U, 0xba3317ef3b8de578U,
  0xbdd730eb3a038a31U, 0x3d7725cabcc5df6bU, 0x3d90cbdc3e273827U, 0x3e116c23bd6ecd12U,
  0x3dd1d01a3d163812U, 0x3cdf1d723df22a96U, 0xbc5f5b26bc681e53U, 0x3cf0132fbd2d455fU,
  0xbe05dcc1bdfe4d25U, 0x3dfd54253ddcada2U, 0xbd53dff0bd4ed790U, 0x3e34474f3e27f5ceU,
  0x3ddcfe5a3d7f47eeU, 0xbd69abaa3de84572U, 0x3d5f7e9b3df95d0fU, 0x3df04cb93d864c48U,
  0x3c704ce03e07e937U, 0x3d94bdee3d6aaaa7U, 0xbd449f5cbd4950d0U, 0x3dacf706bce8ea94U,
  0xbf7a58283eb21785U, 0x3f3e80b4be762462U, 0xbea7af0cbe5c063dU, 0xbde629ab3ea49e94U,
  0xbc886e073ea2023dU, 0xbe00b365bdb74a71U, 0xbdd85ee93bf3ae2eU, 0xbd0a60db3c9366aeU,
  0x3c5b75c23d32bf49U, 0x3c6de506bd274b8eU, 0x3d4932fbbcabdd02U, 0x3d624d67bdcd21b9U,
  0x3d1f3ecebb3760b6U, 0x3c550dfa3cebc11aU, 0x3d45c8373db595dcU, 0xbcd232d03d924474U,
  0x3db9a741bcd74847U, 0x3d37f1bc3cc7e1f8U, 0x3ce753873dba9fafU, 0x3ca469f53da8e0abU,
  0xbda47ec0bd3696c5U, 0xbd414b9e3dd34a06U, 0xbc08fe643b2f59c5U, 0xbd7d3203bd118596U,
  0x3c203195ba4e0ca1U, 0x3d5507a9bd3f0795U, 0xbd2cbc79bd44717eU, 0xbc8d34063cdb37f3U,
  0x3c98a18d3d93eb90U, 0x3d6db0a73d57bfdcU, 0x3d5cdaea3d23d4c3U, 0x3dc5e14fbd9bbd6eU,
  0xbc93c769bd214bf9U, 0x3cdf41913c814fbeU, 0x3d5dff163db104d8U, 0xbaf48ff53b955059U,
  0x3cd32d383b13e749U, 0xbbf5f3383d5708e0U, 0x3d92db103dedb365U, 0x3d09752f3d9b6b3dU,
  0x3b6ec544bc5cd14fU, 0xbd4cb2efbdb1ac69U, 0xbd061f9d3db29b62U, 0xbda7d62ebd1d4f2bU,
  0x3d5a03bd3d83c716U, 0x3c90df77bd346ddfU, 0x3d86f20abd091cd1U, 0x3c35954f3df1d144U,
  0xbca430373dc04826U, 0x3d36f51dbd95775aU, 0x3d159b4fbc53e11bU, 0x3b35fa67bcb9484aU,
  0x3e080e78bc8b10b1U, 0xbd6410dabcbd22e2U, 0xbd3784063d031d76U, 0x3b6f80ad3d94dc72U,
  0x3d16a0e23d3459a5U, 0x3d9221de3e337520U, 0x3d9bd8263c2c6f1cU, 0x3d85d8f13cc02e76U,
  0x3c96ac64bb45100dU, 0xbde8f6983d949225U, 0xbd97e2a0bdf85030U, 0x3e398d123e3ed7ccU,
  0xbd9e926cbd623fb3U, 0x3d1f801b3d588f13U, 0x3df845883dcdc788U, 0xbca701f13d47b685U,
  0xbcbe8243bcef5bb7U, 0xbd4e7bfebbcc429eU, 0x3cb47586bcd5b5c7U, 0x3d0a683fbd63ebb2U,
  0xbce5a50fbd6307adU, 0xbecfb53c3c771491U, 0x3f1ba76ebf2e1a60U, 0x3f379e66be1cbe58U,
  0xbdb372ffbe96b79bU, 0x3dcf49723df550c5U, 0x3dbd3a49bcd972ddU, 0x3d79bf843d269663U,
  0xbbd894163e258e13U, 0x3d1f0c703c2657d3U, 0xbd6649843cc26d86U, 0xbc9dd71c3c0ee212U,
  0xbd3e4b29bd21113eU, 0x39c32b68bd85c3bfU, 0x3d36bf5e3b0de6efU, 0x3d271636bb848352U,
  0x3cbf4a183d80a5aaU, 0x3dab5e373b3b3eefU, 0x3d799c7c3d8c20d7U, 0x3db9e9b73d93ab3aU,
  0x3d57aff53dbdf436U, 0xbcf890f43acefb93U, 0xbd86f91ebd26a71fU, 0x3dad4ea33c058239U,
  0x3bb6a1c4bcbaf23bU, 0xbc4f2f69bd2d7bf2U, 0x3d562b1d3d02f686U, 0x3dacb7b13d161eceU,
  0x3d59887e3db565a3U, 0xbdb539be3cce702dU, 0x3c10eb28bd2a4d8dU, 0x3ca88f2cbdaa915dU,
  0xbd3c2fb63bfcf7caU, 0x3c6def783d60fd56U, 0x3b7a29ffbd2da6d9U, 0xbc67a3fb3dc0e3b8U,
  0x3c93f0a6bd1a0d00U, 0x3ddc7462bda444d3U, 0x3d21eed13d5a9e96U, 0xbdce079e3cc592d9U,
  0xbda4f3fe3c1571e6U, 0x3d5c3303bdb0180bU, 0x3d699cd1b9c5a2bdU, 0x3d93942fbc6897b6U,
  0xbb98ea46bd153482U, 0x3db075c33cafc4dcU, 0xbd1cef503d8e8235U, 0xbb625f103cf3e5c4U,
  0x3d0762b63cfa4b9dU, 0xbb04bc40bc83cb71U, 0x3d2d5b79bd3dcea1U, 0xbc58f9513d08a0ddU,
  0x3d02239a3ded5eb8U, 0xbb1cedcebcf24976U, 0xbd3fc355bd80b624U, 0xbd2d2e0b3d98e82bU,
  0xbd7464583d1810c8U, 0xbd1c9bb2bd83b279U, 0x3c65862e3d830b0fU, 0x3d031514bdbd28eaU,
  0xbdf9fe30bdbbe5beU, 0xbd98bed6bd76dcabU, 0x3e112b4b3d00d5b3U, 0xbc6c4fb43cab42daU,
  0xbc843bc9bd856891U, 0xbcd16f1dbc42fe98U, 0xbdb06698bd6e0927U, 0xbdd3206e3d649f1eU,
  0x3c1ecb9bbd001432U, 0x3dcd581a3dfed170U, 0xbdfb6f743d10681dU, 0x3d589f82bd971ccaU,
  0x3d83ce603e181ecbU, 0xbca1dd933d0f2971U, 0x3d84aec43d347c3dU, 0xbf4ce7543ed07451U,
  0xbea6176c3ec12dc4U, 0x3f19536fbeb4ea48U, 0x3edf93e5bf08a609U, 0x3e3c57be3e311fb3U,
  0x3e9909f73e32bc91U, 0x3d63a1c8be345d57U, 0x3de157313dab82bfU, 0xbbd579adbb05a623U,
  0xbd43a0ba3af7cd93U, 0xbd2f7322bd25879bU, 0x3cc1aa7dbca3f5a2U, 0x3c1acccb3d758b1eU,
  0x3d0765913db084f3U, 0x3dc9ed5fbcd96f3cU, 0x3cb81afd3c9e8723U, 0xbd47977d3dcf708eU,
  0xbb7a4c71bd066f77U, 0xbd7717173c967fc9U, 0xbd078498bb7d724dU, 0x3d2abe303c528cbeU,
  0xbd0d6ae2bd12890bU, 0x3ca0d030bc21762fU, 0x3d792273b94931e3U, 0xbc2e74523c3e943fU,
  0x3d2d793bbd12307aU, 0x3d50fe86bc3ee117U, 0xbbcb4e7bbca675dfU, 0x3e11e2053dac8ee5U,
  0x3cf23be03cd4c5f1U, 0xbcb46870bc67e16eU, 0xbd1b282ebcc57b5eU, 0x3cb2a9ebbcd9b838U,
  0xbdb80b653abc1407U, 0x3b4420b53db9d2c5U, 0x3c0d81aebd230c7bU, 0xbb80ee70bd36d0a7U,
  0x3cd1b488bcad23a6U, 0x3d017ea53d6b6a50U, 0xbd1c1f5c3d3d0979U, 0xbc99a557bce830c4U,
  0xbbcac97ebd4b9ebfU, 0xbd78109ebdb4d358U, 0xbd006f20bcdd5643U, 0xbd510226bd4eebfcU,
  0xbd9888d2bc9fe58dU, 0x3d57d2f43d8c5a35U, 0xbbf919b73d9130e7U, 0x3b386622bd140714U,
  0xbe1176913d11c35dU, 0x3d579bd7be46aa50U, 0xbd3df38bbcd098b2U, 0xbc98c67abcbd1d43U,
  0x3d8c01f3bd99d65dU, 0x3da12cce3bd61328U, 0x3ab429c83d6a88d2U, 0x3d9c1656bd3809f6U,
  0x3d2cf6cb3da718f7U, 0xbde23fd5b9f4a743U, 0x3c619f91bde97e13U, 0x3d434643bc9bfdcbU,
  0x3d29e0283dbf35f7U, 0x3cf13c6f3d625dc6U, 0xbd8ecba2bd67f29dU, 0xbdeed4c03b6d83ebU,
  0xbc9f2756bd9fa263U, 0xbcf3e85bbc94baadU, 0x3ccd17fbbce4fddcU, 0x3cbf64f7bc5d495fU,
  0xbe0ed716be59de35U, 0x3dbd0a67bd006c8eU, 0x3d425fd4bc9d4b52U, 0x3d392f2a3c56cb1bU,
  0x3f3f351cbc0c819fU, 0xbee9633b3ecd06e1U, 0x3f0e303abf38e68eU, 0x3d579953bf28d03aU,
  0x3e5d53ca3efd9fdaU, 0x3ebf01f03ec3ec4fU, 0x3eadc6233ed5163dU, 0x3dc7ddba3e940597U,
  0xbd0acb46bd1c8c37U, 0xbd924845bcf97179U, 0x3d912ce1bd96257fU, 0xbcf8479dbdb9a2aaU,
  0xbd5af198bcbf57b8U, 0x3dda4f253ce45331U, 0xbd422eb1bd675806U, 0x3cad7a35bb2eeec4U,
  0x3dd27e43bdd10e65U, 0x3d44b9dbbc8621f5U, 0xbb7b652bbc447970U, 0x3da9dc2a3c31ba10U,
  0x3d3eb8953cedd7bfU, 0x3c821824bd6da6ceU, 0x3db6996fbd5f7227U, 0xbc614837bdfb68c4U,
  0xb9876af53daea4f4U, 0xbb6f811fbdfa6d42U, 0x3aae5f05bcf1f31bU, 0xbdfbf9dcbcb8155eU,
  0xba9a5204bd5b6812U, 0xbdd92a9abd919451U, 0x3b9d95ea3b613593U, 0xbb31e5f2bdbb13b1U,
  0xbddb14a13d653370U, 0x3bf860f03cdb2d2cU, 0x3d318ae8bc894989U, 0xbda2456eb8b64315U,
  0xbda236cf3d4c3442U, 0xbcee95263c8e18ecU, 0xbd9b3d03bd996071U, 0xbd8c8af9bc897468U,
  0x3c1fc570be01506dU, 0xbdaefbe03c8047a8U, 0xbda55334bd13b953U, 0xbd44bebc3cf2fe5bU,
  0x3c5a33833c1fa61bU, 0xbd86a966bd0fa5edU, 0x3db6fad1bc0bcd53U, 0x3d3fd83c3ca0241bU,
  0xbe0139423d72eeceU, 0x3daa2854bcdeb98fU, 0xbe023c27bd4659e1U, 0xbe042e4a3daa9d92U,
  0x3db27444be0f6073U, 0x3d7d9d84bc237001U, 0xbdc300b03dba305cU, 0xbba6c360bde04d9aU,
  0x3d4a05603d7e34a1U, 0xbe0ca37bbd54459aU, 0x3dd11df03c177b51U, 0xbd938598bd05a3a4U,
  0xbe4499e73d127d62U, 0x3dd5b439be1a2673U, 0xbe3663cbbda820cfU, 0x3d950c703dbb89dbU,
  0x3cd7c2b53c78d921U, 0xbd92053e3cd47387U, 0xbe42e71b3dabf049U, 0xbd0ad6c4be5964b6U,
  0xbccda84d3c9d5a65U, 0xbdfc02c73dc49d33U, 0x3ded0dbabe1a0256U, 0xbb5fdb3b3d5414d6U,
  0xbd1d2ad2bc2a239aU, 0x3dd506dbbd7e1eb8U, 0xbd1b2eb4bf0b76f9U, 0x3f135d743eecc64cU,
  0x3f054849be7610adU, 0x3e1799fb3da46033U, 0x3e22182b3de05f7cU, 0xbc3ce45c3e8a239dU,
  0x3ea5011d3dc92f33U, 0x3ca7f4363c0d1ed8U, 0xbcc3dd2fbd4301a4U, 0x3d72f2f63d369003U,
  0xbcba9f443e12a2f0U, 0x3afc916139d5fe1aU, 0x3d2bf5943cfe9584U, 0xbd06fd3e3ded1e22U,
  0x3d389193bc75d0b6U, 0xbdac51af3d29b1d2U, 0x3ac7a27e3dc270efU, 0xbd8ce9dbbbb62431U,
  0x3d31c4133de1eed8U, 0xbd2ab7f9bc8e1f84U, 0x3c1d74633d7dff77U, 0x3bd92920bd738828U,
  0x3d7e52563d9c77a0U, 0xbd3727e7bd99f322U, 0xbd5d4db53d379848U, 0x3cce507a3d8aec81U,
  0x3d901e00bd5e5a8aU, 0x3dbdc897bcf35f09U, 0x3c8d999e3d8d8c35U, 0x3d26469bbe0ea3a8U,
  0xbda5a69fbd1e14e3U, 0xbc4735fb3d83fbe1U, 0x3cc84243bd85ba97U, 0xbd7a35933cfa38d0U,
  0xbdd8aa593cdfd107U, 0x3d933de0bdca69beU, 0xbd843bddbdcb7e55U, 0xbbbc9ebf3bf631bdU,
  0xbd52fe483d88f59fU, 0xbda7a15abc156194U, 0xbb48eec0bdb0141dU, 0x3caf07ad3d0720e7U,
  0x3ddf91343db5dfaaU, 0x3dafe4e33dc00e0dU, 0xbc322a6d3d000ff4U, 0xbbb99c56bcbfa553U,
  0xbd15b5fa3dbf4b55U, 0xbc3b630abbdde99fU, 0xbd004cc4bc06fc8cU, 0xbd86f312bba81ebaU,
  0xbdbae320be0d1910U, 0xbdb771753bd1de8cU, 0x3d28d4e8bca44670U, 0x3dc494ecbcb4cd2bU,
  0x3cffaa3d3d4a3e28U, 0xbd56161bbd0c7a88U, 0xbcf607d7bce9fb91U, 0xbb9d74d33cc64cafU,
  0xbd100cb93dde0a60U, 0x3b5088ccbd854b07U, 0x3dac3a143cff7b2dU, 0xbcf49d29bdaf3323U,
  0xbb060f5abcc7d828U, 0xbe1bf22cbe01d26aU, 0xbdb866c53c985584U, 0xbd15c897bd8f4004U,
  0xbe0e9eb9be3e3743U, 0xbd97a835ba6ce81bU, 0x3ce8f113bd8af9f7U, 0x3ce5e01cbb0baa35U,
  0xbcb23ab53db9a3c8U, 0x3d4b4bc73d2230abU, 0x3dd316a73d39895aU, 0x3eca518ebcfff31bU,
  0xbf4ebdb63f1710fbU, 0xbf11bc03be09e8ecU, 0x3ddb97afbf1d031fU, 0xbe387b81bd885081U,
  0xbe378fa1bd4052dfU, 0xbde52281be00494cU, 0xbc7f225fbecb367dU, 0x3cbc378abb449fbfU,
  0x3d92e1f03d66c4a9U, 0xbd1c14cb3b390b97U, 0x3ca7bd703ce37663U, 0xbc870a753d7738f7U,
  0x3d82802a3c828015U, 0x3d2ab5363d551a92U, 0x3c1f75ffbc00c997U, 0x3d04c9f43d691837U,
  0xbd1d3fce3a9ac081U, 0xbbdb205d3cbd3228U, 0x3de0b9ef3d8240b5U, 0x3ae48e2a3cf167f5U,
  0x3d457acc3d87a045U, 0x3db51f5c3d7a2020U, 0xbc99df04bd93043bU, 0xbd597c6b3d363efdU,
  0x3c4bf0643ddd1a47U, 0x3d5ddbedbca6125eU, 0x3de11ce63d1187b5U, 0x3dc2f060bc9af4deU,
  0x3d343eb7bce955f0U, 0x3d0e5041bcb51490U, 0x3cd898e23bf2b2bbU, 0x3b034ea8bbdca5f2U,
  0xbd2f6fdaba846bceU, 0x3d22fb2dbc8d8ddaU, 0x3d21a1cabd0b0b9eU, 0xbc058a14bd2fa126U,
  0xbd635472bd4e4ec3U, 0x3d4c382b3de3e61dU, 0x3d5873773d756300U, 0x3d0b25613db96ab7U,
  0xbdf364de3cb45f40U, 0x3b91072cbd71e9a2U, 0x3d5d8a1e3d2ceac5U, 0x3ccd2ac63c971070U,
  0x3dca28193db4a2baU, 0xbbe7a6e43d9e7472U, 0x3c46bd10bd4fd472U, 0x3dc5ec7dbd23b049U,
  0x3d5e73233ccd3796U, 0x3e09bc953e44035dU, 0xbc40eebdbafca39fU, 0x3d8d4730bcca007fU,
  0x3cc272683cd6e7e2U, 0x3a1016d23cb31283U, 0xbd46e4a53d8b5916U, 0x3dc25c05bc74bf64U,
  0x3cf1bcd3bd642436U, 0x3d7e7dd83cb5b6fcU, 0xbd405c993d46682fU, 0x3e0a6d943da42aedU,
  0x3cb02bf13dde5e03U, 0x3d4ff1c03c2a897cU, 0xbd94e1f03ce32670U, 0x3cdc6aec3c66a2b7U,
  0x3ce62d52bd41e7c8U, 0xbd0d40e8bd31a6a4U, 0xbcd75689bd144385U, 0xbcadc3ca3d2eacebU,
  0x3e2c7189bd57cebbU, 0x3da3f1773e829f0eU, 0x3d44e5b1bd204177U, 0x3d5016393caf9181U,
  0xbd12ac673c17ccf4U, 0x3f06197fbf2cb73fU, 0xbf418f6ebf20483dU, 0xbf21b9abbf161c3cU,
  0xbe6333673ea3bae2U, 0x3c2f5969be33ba31U, 0xbe06db9ebea4ba8eU, 0xbd9b0934bed77d11U,
  0x3bf2c5c7bba61d9aU, 0x3c88a1f8bd4497f7U, 0xbcd23a493d88eee2U, 0x3d47d9a23cb26cfcU,
  0x3cdb2c76bd18a5bfU, 0xbbd4ca1bbd3bd38eU, 0x3d2a617d3d62a731U, 0xbd4291d139f4875cU,
  0xbd05741bbbbc1f48U, 0x3cd01102bc3484a0U, 0x3b8ce3abbd20f94bU, 0x3b3497abbc3f3c41U,
  0x3daddf84bd332395U, 0xbdc8ca6a3d2d100bU, 0xbcb86c96bd7bc271U, 0x3d50183dbce48885U,
  0x3c9565813d4c5f35U, 0xbbf52e65bac79869U, 0x3cfa624cbcce3b13U, 0xbc1a9ac2bd208a6aU,
  0xbd5eb856bd440a7cU, 0x3c6d8c6cbd64fc0eU, 0x3c1081513c0ef3b7U, 0x3d632e483c696a1eU,
  0xbcb49b56bc2bb7cfU, 0xbcdabd423ddba25fU, 0xbce3d047bac374dbU, 0xbd028310bd98951cU,
  0xbd5492573b815b70U, 0xbc5e1087bc1a0ce7U, 0x3d3f2d913d1dd62eU, 0x3d2c5f213daeff26U,
  0x3e04ada63e060298U, 0x3d5b46f2bda4412bU, 0x3d17bf7cbb317163U, 0xbaf140c4bd21f5c3U,
  0x3da9adc83b8de34dU, 0xbd8178643c7bd4a8U, 0x3d93eb4c3d603ccaU, 0x3ad992aa3d45fe8eU,
  0xbd80acdb3d75bf4dU, 0xbcf6259bbcd1fa4dU, 0x3dea0531bd2493c8U, 0xbdbaed323dcb1d68U,
  0x3b3137b53d13c9e7U, 0xbd666be6bdbdcfd4U, 0xbda01ca43d5073b2U, 0xbc1511d13d3f3518U,
  0x3d240a0a3d183fddU, 0x3c6249edbd681494U, 0x3deeaa0b3d766244U, 0x3daa6d08bda277dfU,
  0xbd1787023dc3cda9U, 0x3c868a5a3c270014U, 0x3d93557abdd9efaeU, 0xbd183c703d6b4d88U,
  0x3e1d69da3d6e8f85U, 0x3dffaf69bd3ba628U, 0xbc59a06b3d77b98eU, 0x3d998df73d18a1e3U,
  0x3de102cc3d5e1e11U, 0x3d69561a3dda5902U, 0x3d978eec3c9e690fU, 0x3a583d703cb1266aU,
  0xbd5195a6bcf1522fU, 0x3d25d5ddbd694a5fU, 0xbf16db2c3c320abbU, 0x3edaee9ebbafd2afU,
  0x3e0e7624bdeb6b82U, 0xbee67466bc607d9aU, 0xbecbfc1dbe808039U, 0xbee897c0beda5ad6U,
  0xbec6f5fdbee94fe1U, 0xbc9a9b75bebb421bU, 0xbd1269ac3d4a20deU, 0x3d15fe26bd498481U,
  0x3bbde280bab42bb4U, 0x3db1f7293b771e1fU, 0xbd64af42bd7bc326U, 0x3c60b74c3c6ce636U,
  0x3d8ad4ee3dd06007U, 0x3e167e6fbd69ab04U, 0x3d2fc4493da8ba23U, 0xbc41ddc63d6416e0U,
  0x3d77fb00bc6bde05U, 0xbd5aba5fbd1dc188U, 0x3ccfaf6bbcbebd62U, 0x3ccb1c46bc9795a1U,
  0x3c49292e3d31991aU, 0xbc3468373d27c98aU, 0xbc0307eb3cc10d2aU, 0xbd2fbedd3d4a884bU,
  0x3cee15763e1a8970U, 0xbd5836793cf8d6d6U, 0xbd7c3fd1bc8b99f2U, 0xbccf6a843d075f8bU,
  0xbca3e31cbd5673cfU, 0x3d8040a63d88eaf3U, 0x3def6f9b3d5114a9U, 0x3dd9f9cb3ca81045U,
  0xbcf909003cf7c8c6U, 0x3c6552fd3d66fd04U, 0x3de75d883dadf125U, 0x3bf9fdce3d202788U,
  0x3da5a2413d1a809dU, 0x3dc2dc563d10146eU, 0x3d10f2083ce05cd7U, 0xbd2de513bd8d7c86U,
  0xbcbc395e3d5b960eU, 0x3d1a91ccbc9d628aU, 0x3bf4a5383d2d5c28U, 0xbd8cad6fbd382276U,
  0x3d38c6093d4a111dU, 0x3d99a8f03dba9ba8U, 0xbcccf573bd15e6d3U, 0x3cbc59153dca1a5eU,
  0x3da753b0bc9506aaU, 0x3d512b3cbd0b3475U, 0xbcefd6183c901e22U, 0xbd290e133da6e8f0U,
  0x3d97c6a13d82a4d8U, 0x3dca0b77bd52d528U, 0x3db464e33d4829dbU, 0xbbef8b1cbc3158f1U,
  0x3d816b7f3d07c9f1U, 0x3d049280bb485e41U, 0x3e61f698bd10b84cU, 0xbdb0ed753e0e853dU,
  0xbddff104bd86b7daU, 0xbdc22e333d6c918cU, 0xbcd8ef3cbe1230b8U, 0x3dac69803dcbe881U,
  0x3dddd6cc3d93824cU, 0xbd87958c3d6e0507U, 0xbceb55fd3dcc6ae2U, 0x3d8106adbc10e9adU,
  0x3d5a7a5cbd8aee65U, 0x3dc0d569bc5e057bU, 0x3d9a51403c783515U, 0x3d513a6dbd67b0cbU,
  0xbea19f943e743631U, 0x3efa6b50bf10c4b3U, 0x3ef77a313e31cf4bU, 0xbebe6f4abee68eecU,
  0xbe889050be9a987eU, 0xbe09f892be27d299U, 0xbed6de35be6366b4U, 0xbccaa9cc3d9ded67U,
  0x3d81daca3d6034f0U, 0x3d0d402f3d7f9181U, 0x3d7c467abd577d14U, 0xbd8d49b0bcc2af80U,
  0xbca91a933c1a54baU, 0xb99e934fbd000d10U, 0xbcfdbe753c92ca98U, 0x3b268f5abd00136fU,
  0xbc9aed4dbca96b91U, 0xbd49fc5cbd60f555U, 0xbcde04c13d1eb89eU, 0x3d8f92743d8cb85fU,
  0x3d868edd3d2c8fe6U, 0x3d98e0293da51535U, 0x3c122cc0bd484c7aU, 0x3d978180bcd25abfU,
  0xbb7714843d158427U, 0xbcb8f1b93d89094eU, 0xbd164b833d8b7631U, 0x3d16d0753d1799beU,
  0x3cd61d5b3c3cfc55U, 0x3c4bc95d3cc819a5U, 0xbc349bfa3db7eea6U, 0x3db679083ceb0d2bU,
  0xbd36fd473d57b820U, 0xbc3959df3d7fa7e5U, 0x3ccf01c1bcd4cdb8U, 0xbbe55ac83d297594U,
  0x3cb7d160bb8cdb7fU, 0xbd1e36e7bc95ce34U, 0x3dc15ba6bc6ece99U, 0x3d372a853d41fbc9U,
  0xbcc2b710bd38eb0eU, 0xba8e0e02bc805cdaU, 0xbd19b662bc4b96c6U, 0xbced7e7cbd50f43bU,
  0x3dc53b2f3bd80d9aU, 0x3cb6868e3d8c4fabU, 0x3c7e2c3f3db6989aU, 0x3c9a25583ce79626U,
  0x3da694513d94adceU, 0xbc978e6c3bd0b093U, 0x3ca1cf143d527d2fU, 0x3d069fd73d9a5851U,
  0xbd666750bd145356U, 0x3d64cda13c4a158fU, 0x3dba60d4bd1d1b4dU, 0x3d90f9733dc78b79U,
  0x3d875e343d845dd3U, 0xbc92f63f3dbe2cddU, 0x3d49a9abbd618c7eU, 0x3c3e7ddb3d000d9fU,
  0xbd6bf255bd7bfa11U, 0x3db44435bd84c9b7U, 0xbcb69f3d3cb96df5U, 0x3e28cf353e28ae84U,
  0x3db881d33db88478U, 0xbd4e66b03dfdcd96U, 0xbda5ca86bd3b8c5cU, 0xbdc8db4f3dae2da4U,
  0xbd0245a2be2773d5U, 0x3d67e6453da15cc2U, 0xbd7b01c6bb2980f9U, 0xbc1a6344bd4a8b66U,
  0xbd4c2e78bbddf050U, 0xbf4a188a3d75e64fU, 0x3f1a61ea3ebb9dd6U, 0xbf0d1faa3dcb5bb4U,
  0x3e381da5bf39859aU, 0xbea57e09bebe10dcU, 0xbe9aa98ebeec19f2U, 0xbed002f7bededd47U,
  0x3e09160ebf13b61cU, 0x3d007cbe3a2ade01U, 0x3c9ffb333e0dd19aU, 0x3d3e07a83b715cb3U,
  0xbd978e2fbdf10094U, 0xbd7882aa3e0a8333U, 0x3dbd0418bdf2c82fU, 0xbd3fabfcbd64ac09U,
  0xbd2007b33d120a2aU, 0x3db04cafbd2b9606U, 0xbd7f1eb8bd8baae3U, 0xbd39a0763c64a7d9U,
  0x3d7ca46fbe041eddU, 0xbb6ffcbebd7e6b2bU, 0xbdb847343db3d246U, 0x3c78c56fbda67d89U,
  0xbdc7a5ebbdd3ed13U, 0xbdf1c8953d4518b2U, 0x3cd8840bbe0c4228U, 0xbe1dfc73bdb5539aU,
  0x3be08e743dfa0613U, 0x3d8a39c63d28c792U, 0xbe02db05bd1c378bU, 0xbdbc40373c3b02e7U,
  0x3db8e1ccbd99909cU, 0xbd512f0abc95f009U, 0xbdbcaff23d644e7cU, 0x3d4d86dfbd61617cU,
  0xbe3048debd4f5f07U, 0xbcaf4e50bc9212dfU, 0x3d5c0c9fbdee4379U, 0xbd31393abd48c958U,
  0xbd9a7684bd569895U, 0x3e03b04ebe087e37U, 0xbd44cc143d04b554U, 0xbd9c73b13d12a075U,
  0xbc307812bd682b43U, 0xbd00e6adbd9a5d09U, 0x3d80a42a3dab837fU, 0x3c99e6ae3d821bc0U,
  0xbdc3cb3abd0412d4U, 0xbc1504733da7752eU, 0x3db769b0bded0343U, 0xbceee8cabd1d8ac3U,
  0xbde702693d450d07U, 0xbd4b8180be005418U, 0xbd5898b6bdd03c1cU, 0xbb5b888abbc20406U,
  0x3db9886f3c04370aU, 0x3c928fbb3e033072U, 0xbdc16d223db461bbU, 0xbc9f36ab3c648500U,
  0xbdfb841abb7aadaaU, 0xbd23dc8cbd318ecaU, 0x3bd7e82abd75a3c3U, 0xbd653648bd9e160eU,
  0x3c8add6e3c97e484U, 0xbc3c992bbd068809U, 0xbc8e53b3be2058c6U, 0xbceca8013d4d2d02U,
  0x3cc58346bd19fa79U, 0xbde2b15cbe243dfeU, 0xbd9df0ef3dc0c6edU, 0xbcf2c4a7bdb77f8dU,
  0xbd2b10713d14bca7U, 0x3bfd2e653d0d63e0U, 0x3d52352a3d950c34U, 0x3eceaab2baa659bdU,
  0x3ec981193d8a128fU, 0xbed6549abedf0c1bU, 0x3d93544e3c16e624U, 0x3dbd1f823deb995fU,
  0x3e16753e3e9b69dcU, 0x3e285e3e3e230a6dU, 0xbd8486c93ccb5276U, 0x3cf1b9e3bca2c1a4U,
  0xbdb608fabdc0571bU, 0x3cbd40793d9ea338U, 0xbc1b6501bdb826c1U, 0xbd9ccc183c90295cU,
  0xbda75daa3bebd74cU, 0x3cbcfad0bd46b991U, 0x3d257afc3d8215b7U, 0x3d2019f43d696972U,
  0x3bd51ec03d53a1a5U, 0xbd1acfc9bc1ae7dcU, 0xb90386b63da24dbcU, 0x3d025ff5bc02dc3eU,
  0xbbd824b43dab6027U, 0xbccc1acf3d89c70cU, 0xbcbd6615bdbca3f7U, 0xbd9d1334bbf2dd46U,
  0x3d864c283dbefcfbU, 0x3c9a5fc93c807671U, 0x3d6c7c73bda476fdU, 0x3d0a72c43defedfaU,
  0xbda3d4b6bc68afe9U, 0xbdee8128b60315bcU, 0xbd8728eb3d8c770fU, 0x3d882be3bde6c005U,
  0xbd82d24fbe040487U, 0xbd5d2671bd0b5f6aU, 0x3a86d18ebc34fd03U, 0x3c6f973dbd969b68U,
  0xbc901b503d9748b9U, 0xbcf6fb763d664661U, 0xbd002ec9bd78a4dfU, 0x3c56460f3c383fb7U,
  0x3bdb7e6ebd0adc0fU, 0x3da3c1413c061b7aU, 0x3aecf79abc0447f2U, 0x3d3d847e3c78b2ffU,
  0xbda23beebdba5f3cU, 0xbc578cef3da2899bU, 0x3da4b2c8bdde99a2U, 0x3c317cd8bd9709f1U,
  0x3d6c01c2bd0bc407U, 0x3d42193e3ca25882U, 0x3c6447ddbe01607dU, 0x3c064336bb6bdbe3U,
  0x3d33f8053c5c95d3U, 0xbd074d59bd492cf0U, 0x3d10349f3cb8a868U, 0xbd783d9b3ce3c3e9U,
  0xbd3c29d0bd88e174U, 0x3cba84573db62c45U, 0xbcba754cbd81fb40U, 0xbe229bc8bde2edffU,
  0xbe1962393dd92b67U, 0xbd1cf7a8bcf29879U, 0xbcec9cec3bfea392U, 0xbd3359533ceef6baU,
  0xbbc6bbd7bd5b6db6U, 0xbe315c16be1275bdU, 0xbe1013bd3dcc6b2bU, 0x3d80e88cbd54463dU,
  0xbc52406f3c0faab3U, 0x3df3b8963dada6a5U, 0x3d477adcba834d39U, 0xbc68c2523d31e6d6U,
  0xbebbf555bc8400d8U, 0xbe737a3bbed09f8bU, 0xbe06f60a3eb0746cU, 0x3ea70277be727841U,
  0x3dd4186a3e3559baU, 0x3d84e3243cc8bfa3U, 0x3d0058f63cad5035U, 0x3c2f36be3e9c5f47U,
  0x3c22c5beba3c3877U, 0xbd0e40babd0fcf4aU, 0x3d055cacbc13508eU, 0x3cdac816bcda831fU,
  0xbd3cc11cbcd6d4eeU, 0x3d121efabc1d526eU, 0x3d94e7bb3da5bebeU, 0xbce5ccb53ab4b3e8U,
  0x3cc11848bd5f6aaaU, 0xbd1a26c5bd8d7290U, 0xbc328d0e3cabf32eU, 0xbd1efd6d3d9476cdU,
  0xbd6f8dcbbd30610fU, 0xbd2841cfbc81caf9U, 0xbd6cdeb1bc742334U, 0x3c76b3bbbcc371b9U,
  0x3d1bc83dbd4c70adU, 0xbd86caf9bd88aae8U, 0xbd89763039ad826aU, 0x3c5a87453d16efdfU,
  0xbcc7577c3d8cec4aU, 0x3d95e2ce3d14ce79U, 0x3b808ba4bd9412f1U, 0x3d9e25403b0b758eU,
  0x3c9381bb3cf6711cU, 0xbd5dbf11bcf84e8fU, 0x3c214af63c9884d0U, 0x3cd5244f3d689a96U,
  0x3d89ff923d2b2b93U, 0x3bff5bdf3c16618fU, 0x3d18951ebcdfa18dU, 0xbd2eb782bdbbba82U,
  0xbe05abba3afa2fd9U, 0xbd727d56bc8beea1U, 0x3d11643abcf109eeU, 0xbd1c747ebb0ef0c1U,
  0x3d97afabba92269dU, 0x3d65b45ebd24e94fU, 0xbd9ec43d3d31767dU, 0x3d477481bb7345d7U,
  0x3d573322bb0618d0U, 0xbd8ae4fb3ce3ebd6U, 0xbd80ed6c3d153e41U, 0x3cb968b83ca7dbb9U,
  0x3bf797f03a9b301bU, 0xbccacc903d305951U, 0xbc98062ebda43084U, 0xbdc3b11c3d351abfU,
  0xbcb7a7ad3d265d04U, 0x3d07a646bd3da71aU, 0xbc41396dbc61553dU, 0xbd0664223d72c695U,
  0x3cf3eef0bdc193f1U, 0xbdb6a249bc3a6be3U, 0xbd7c05cc3d90edd2U, 0x3de52b733c2d2c52U,
  0x3b14e4313d942295U, 0x3e35ccc23e11dba7U, 0xbd94efcdbcf87452U, 0xbcddebe7bd336e1eU,
  0xbd1ed515bca01724U, 0xbd3183d8bd27db42U, 0xbdc57711bbad54a8U, 0x3d053ba3bb45acb3U,
  0xbd4f94113cf7ea04U, 0xba898c42bda18d04U, 0xbe83fa593ee01970U, 0x3ecef009bde14cc2U,
  0xbe03b732bedf43a2U, 0xbee00921bf0e4784U, 0xbef24b23bed9737cU, 0xbf2399bbbeb27e3fU,
  0xbd047fedbec1af20U, 0x3d98e39bbb68373cU, 0xbd50f97d3c9533a7U, 0x3c9cebbe3d9fe7abU,
  0xbbdb291f3cfa0bf9U, 0x3ca5d05b3ca275deU, 0x3cb2f946bd9e36a9U, 0x39a5daf0bd8b0033U,
  0x3c17f112bc3eba67U, 0x3c32742fbd2943dfU, 0x3d9ce08ebd90515aU, 0xbd3e998d3ca96aecU,
  0xbd9e7f553cff0d53U, 0xbcb24ca7bd90a969U, 0x3d1596abbd68430fU, 0x3d64689a3d0bdbceU,
  0x3c40fae73d68cf2dU, 0xbd6998203de577e8U, 0x3ca82e11bd421df0U, 0x3d213e3f3cfd1238U,
  0xbc426dbcbab6f05aU, 0x3d6170e63da7486dU, 0x3c242d8fbd042f27U, 0xbd89c6443dcb1127U,
  0xba070c793d1fd441U, 0x3b651fdb3d3f6ec6U, 0x3dadd6ca3dfcfadcU, 0x3db4a1ef3cfe78e8U,
  0x3c3562d53d2d30cdU, 0xbd4758fc3cc8f946U, 0x3e065f793d1ba2bfU, 0x3cc66cf13d46f8edU,
  0x3d474bae3de64ba4U, 0x3da032cc3d6aa15fU, 0x3d23b23abd6a9fc2U, 0x3d8d4a1f3c1dadd0U,
  0x3daae858bd4d840cU, 0x3d5907063dab85c5U, 0x3d44500fbc06348aU, 0x3dae1620bdb296e5U,
